<blank> 0
<unk> 1
' 2
'@@ 3
a 4
a@@ 5
ab 6
ab@@ 7
aband@@ 8
abandoned 9
abbas 10
abc 11
abdul@@ 12
abeth 13
abilities 14
ability 15
abl@@ 16
able 17
ably 18
abo@@ 19
abor@@ 20
abortion 21
about 22
above 23
abroad 24
abs@@ 25
absence 26
absol@@ 27
absolutely 28
abu 29
abuse 30
ac 31
ac@@ 32
acad@@ 33
academic 34
academy 35
acc@@ 36
acceler@@ 37
accep@@ 38
accept 39
acceptable 40
accepted 41
access 42
acci@@ 43
accident 44
acco 45
accompan@@ 46
accompl@@ 47
accor@@ 48
according 49
accoun@@ 50
account 51
accounting 52
accounts 53
accur@@ 54
accurate 55
accus@@ 56
accused 57
ace 58
ach 59
ach@@ 60
ache 61
ached 62
aches 63
achiev 64
achiev@@ 65
achieve 66
achieved 67
aching 68
achus@@ 69
acity 70
ack 71
ack@@ 72
acked 73
acking 74
ackn@@ 75
acknowle@@ 76
acknowled@@ 77
acknowledged 78
acks 79
acle 80
acqu@@ 81
acqui@@ 82
acquisi@@ 83
acquisition 84
across 85
act 86
act@@ 87
acted 88
acti 89
acti@@ 90
acting 91
action 92
actions 93
active 94
activis@@ 95
activists 96
activities 97
activity 98
actor 99
actors 100
actress 101
acts 102
actu 103
actu@@ 104
actual 105
actually 106
acy 107
ad 108
ad@@ 109
ada 110
adam 111
adams 112
adap@@ 113
add 114
added 115
addi 116
addi@@ 117
addic@@ 118
adding 119
addition 120
additional 121
addres@@ 122
address 123
addressed 124
adds 125
ade 126
aded 127
adel@@ 128
adequ@@ 129
adequate 130
ades 131
adi@@ 132
ading 133
adju@@ 134
administr@@ 135
administration 136
admitted 137
ado 138
adop@@ 139
adopt 140
adopted 141
ador 142
ads 143
adult 144
adults 145
adv@@ 146
advance 147
advanced 148
advant@@ 149
advantage 150
advent@@ 151
adver@@ 152
adverti@@ 153
advertis@@ 154
advertising 155
advice 156
advis@@ 157
advised 158
adviser 159
advisers 160
advoc@@ 161
advocates 162
ady 163
ae 164
ae@@ 165
af 166
af@@ 167
aff@@ 168
affair 169
affairs 170
affect 171
affected 172
affili@@ 173
afford 174
afford@@ 175
affordable 176
afgh@@ 177
afghan 178
afghan@@ 179
afghanistan 180
afp 181
afr@@ 182
afraid 183
afric@@ 184
africa 185
african 186
aft 187
after 188
after@@ 189
afternoon 190
ag 191
ag@@ 192
again 193
again@@ 194
against 195
age 196
aged 197
agement 198
agencies 199
agency 200
agenda 201
agent 202
agents 203
ages 204
agged 205
agging 206
aggres@@ 207
aggressive 208
aging 209
ago 210
ago@@ 211
agon 212
agre@@ 213
agree 214
agreed 215
agreement 216
agreements 217
agric@@ 218
agricul@@ 219
agricultural 220
agriculture 221
ags 222
agu@@ 223
ah 224
ah@@ 225
ahead 226
ahmadinejad 227
ai 228
ai@@ 229
aid 230
aide 231
aides 232
aids 233
aig 234
ail 235
ail@@ 236
ailed 237
ailing 238
ails 239
aim 240
aimed 241
aims 242
ain 243
ain@@ 244
aine 245
ained 246
aining 247
ains 248
ain's 249
air 250
air@@ 251
aircraft 252
aire 253
aired 254
airline 255
airlines 256
airport 257
airs 258
ais@@ 259
ait 260
aj@@ 261
ak 262
ak@@ 263
ake 264
aked 265
aker 266
akers 267
akes 268
aking 269
aks 270
al 271
al@@ 272
ala 273
alan 274
alaska 275
albu@@ 276
album 277
alco@@ 278
alcohol 279
ald 280
ale 281
aled 282
aler@@ 283
alert 284
ales 285
alex 286
alex@@ 287
ali 288
ali@@ 289
alia 290
aling 291
alisation 292
alised 293
alism 294
alist 295
alists 296
alities 297
ality 298
alive 299
alization 300
alized 301
all 302
all@@ 303
alle@@ 304
alled 305
alleg@@ 306
allegations 307
alleged 308
allegedly 309
allen 310
alli 311
alli@@ 312
alliance 313
allies 314
alling 315
allow 316
allowed 317
allowing 318
allows 319
alls 320
ally 321
almost 322
alo@@ 323
alogue 324
alone 325
along 326
along@@ 327
alongside 328
alp@@ 329
alpha@@ 330
already 331
als 332
al's 333
also 334
alter@@ 335
alternative 336
although 337
alties 338
alty 339
alu@@ 340
always 341
aly@@ 342
am 343
am@@ 344
ama 345
amaz@@ 346
amazing 347
amb@@ 348
ambass@@ 349
ambassador 350
ambi@@ 351
ambitious 352
ame 353
ame@@ 354
amed 355
amend@@ 356
amendment 357
amendments 358
amer@@ 359
americ@@ 360
america 361
american 362
americans 363
america's 364
ames 365
ami 366
amid 367
aming 368
amm@@ 369
amo 370
among 371
amoun@@ 372
amount 373
amounts 374
amp@@ 375
ams 376
amy 377
an 378
an@@ 379
ana 380
analy@@ 381
analysis 382
analyst 383
analysts 384
anc@@ 385
ance 386
anced 387
ances 388
anch@@ 389
ancient 390
ancing 391
ancy 392
and 393
and@@ 394
anda 395
ander 396
anderson 397
andre@@ 398
andrew 399
ands 400
and's 401
andy 402
ane 403
anese 404
ang 405
ang@@ 406
ange 407
angel@@ 408
angeles 409
anger 410
angl@@ 411
angle 412
angry 413
ani 414
ani@@ 415
anian 416
anim@@ 417
animal 418
animals 419
anish 420
ank 421
ann 422
ann@@ 423
anna 424
anne 425
announ@@ 426
announce 427
announced 428
announcement 429
annual 430
anny 431
ano 432
anonym@@ 433
anonymity 434
another 435
ans 436
an's 437
answ@@ 438
answer 439
answered 440
answers 441
ant 442
ant@@ 443
anta 444
anth@@ 445
anthony 446
anti 447
anti@@ 448
anticip@@ 449
anticipated 450
antly 451
anton@@ 452
ants 453
anx@@ 454
any 455
any@@ 456
anybody 457
anyone 458
anything 459
anyway 460
anywhere 461
ao 462
ap 463
ap@@ 464
apar@@ 465
apart 466
apartment 467
aper 468
apers 469
apol@@ 470
apologi@@ 471
app 472
app@@ 473
appar@@ 474
apparent 475
apparently 476
appe@@ 477
appeal 478
appeals 479
appear 480
appear@@ 481
appearance 482
appeared 483
appears 484
apped 485
apping 486
appl@@ 487
apple 488
applic@@ 489
application 490
applications 491
applied 492
apply 493
appointed 494
appointment 495
appreci@@ 496
appreciate 497
appro@@ 498
approach 499
appropri@@ 500
appropriate 501
approval 502
approved 503
april 504
aps 505
aq 506
aq@@ 507
ar 508
ar@@ 509
ara 510
arab 511
arab@@ 512
arc@@ 513
arch@@ 514
archi@@ 515
archit@@ 516
architec@@ 517
ard 518
ards 519
are 520
are@@ 521
area 522
areas 523
ared 524
aren@@ 525
arena 526
aren't 527
arg@@ 528
argent@@ 529
argu@@ 530
argue 531
argued 532
argument 533
arguments 534
ari 535
ari@@ 536
arian 537
aries 538
arily 539
aring 540
arity 541
ariz@@ 542
arizona 543
ark 544
arly 545
arm 546
arm@@ 547
armed 548
arms 549
army 550
around 551
arr@@ 552
arrang@@ 553
array 554
arre@@ 555
arrest 556
arrested 557
arrests 558
arri 559
arri@@ 560
arrive 561
arrived 562
ars 563
arsen@@ 564
arsenal 565
art 566
arti@@ 567
artic@@ 568
article 569
artist 570
artists 571
arts 572
ary 573
as 574
a's 575
as@@ 576
ase 577
ased 578
ases 579
ash 580
ash@@ 581
ashed 582
ashes 583
ashing 584
asia 585
asian 586
aside 587
asing 588
ask 589
aska 590
asked 591
asking 592
asks 593
ason 594
asp@@ 595
aspects 596
ass 597
ass@@ 598
assass@@ 599
assault 600
assemb@@ 601
assembly 602
asser@@ 603
assess@@ 604
assessment 605
asset 606
assets 607
assi@@ 608
assist 609
assist@@ 610
assistance 611
assistant 612
associ@@ 613
associated 614
association 615
assum@@ 616
assume 617
assur@@ 618
assure 619
assy 620
ast 621
ast@@ 622
aste 623
asted 624
aster 625
aster@@ 626
astern 627
astic 628
asting 629
astr@@ 630
astro@@ 631
asts 632
at 633
at@@ 634
atch 635
ate 636
ate@@ 637
ated 638
atedly 639
ately 640
ater 641
ateral 642
ates 643
ath 644
ath@@ 645
athan 646
ather 647
athle@@ 648
athletes 649
athy 650
ati 651
ati@@ 652
atic 653
atic@@ 654
atically 655
ating 656
ation 657
ation@@ 658
ational 659
ations 660
ation's 661
atis@@ 662
ative 663
atives 664
atl@@ 665
atlan@@ 666
atlanta 667
atlantic 668
atmos@@ 669
atmosphere 670
ator 671
ators 672
atory 673
atr@@ 674
ats 675
at's 676
att 677
att@@ 678
attack 679
attacked 680
attacks 681
attemp@@ 682
attempt 683
attempted 684
attempts 685
attend 686
attended 687
attention 688
attitu@@ 689
attitude 690
attle 691
attor@@ 692
attorney 693
attorneys 694
attr@@ 695
attrac@@ 696
attract 697
attractive 698
attribu@@ 699
atur 700
atur@@ 701
ature 702
atures 703
au 704
au@@ 705
auc@@ 706
auction 707
aud@@ 708
audi 709
audi@@ 710
audience 711
audio 712
aug@@ 713
augh@@ 714
aught 715
august 716
aul 717
ault 718
aus@@ 719
ause 720
austr@@ 721
australi@@ 722
australia 723
australian 724
austri@@ 725
aut@@ 726
auth@@ 727
author 728
authori@@ 729
authorities 730
authority 731
authorized 732
auto 733
autom@@ 734
av 735
av@@ 736
avail@@ 737
available 738
ave 739
average 740
aves 741
avi@@ 742
aviation 743
avo@@ 744
avoi@@ 745
avoid 746
aw 747
aw@@ 748
awa@@ 749
awar@@ 750
award 751
awards 752
aware 753
awareness 754
away 755
ax 756
ax@@ 757
ay 758
ay@@ 759
aya 760
ayed 761
aying 762
ays 763
az 764
az@@ 765
b 766
b@@ 767
ba 768
ba@@ 769
bab 770
bab@@ 771
bably 772
baby 773
bac@@ 774
bach@@ 775
back 776
back@@ 777
backed 778
background 779
backing 780
backs 781
bad 782
bad@@ 783
badly 784
bag 785
bagh@@ 786
baghdad 787
bags 788
bail 789
bail@@ 790
bailout 791
bak@@ 792
bal 793
bal@@ 794
balance 795
ball 796
ball@@ 797
ballot 798
balls 799
ban 800
ban@@ 801
band 802
bang@@ 803
bank 804
bank@@ 805
bankers 806
banking 807
bankrup@@ 808
bankruptcy 809
banks 810
banned 811
bar 812
bar@@ 813
barack 814
barbar@@ 815
barely 816
barri@@ 817
bars 818
bas 819
bas@@ 820
base 821
base@@ 822
baseball 823
based 824
basic 825
basically 826
basis 827
basket@@ 828
basketball 829
bat@@ 830
batt@@ 831
battle 832
bau@@ 833
bay 834
bay@@ 835
bb@@ 836
bbc 837
bble 838
bc 839
be 840
be@@ 841
beach 842
bean 843
bear 844
beat 845
beat@@ 846
beaten 847
beau@@ 848
beauti@@ 849
beautiful 850
beauty 851
bec 852
bec@@ 853
became 854
because 855
becom@@ 856
become 857
becomes 858
becoming 859
bed 860
bed@@ 861
bedro@@ 862
bee 863
been 864
beer 865
before 866
beg@@ 867
began 868
begin 869
beginning 870
begins 871
begun 872
beh@@ 873
beha@@ 874
behalf 875
behavi@@ 876
behavior 877
behaviour 878
behind 879
beij@@ 880
beijing 881
being 882
bel 883
bel@@ 884
belgi@@ 885
belief 886
believ@@ 887
believe 888
believed 889
believes 890
bell 891
bell@@ 892
below 893
ben 894
ben@@ 895
bench 896
benef@@ 897
benefit 898
benefits 899
ber 900
ber@@ 901
berg 902
berlin 903
bern@@ 904
bernanke 905
berry 906
bert 907
bery 908
bes 909
bes@@ 910
best 911
bet 912
bet@@ 913
better 914
between 915
bey@@ 916
beyond 917
bi 918
bi@@ 919
bia 920
bian 921
bid 922
bie 923
big 924
bigg@@ 925
bigger 926
biggest 927
bil@@ 928
bill 929
bill@@ 930
billi@@ 931
billions 932
bills 933
bin 934
bin@@ 935
bing 936
bio@@ 937
bir@@ 938
bird 939
birds 940
birth 941
bish@@ 942
bishop 943
bit 944
bit@@ 945
bits 946
bl@@ 947
black 948
black@@ 949
blair 950
blame 951
blamed 952
blan@@ 953
blast 954
blaz@@ 955
ble 956
ble@@ 957
bled 958
bles 959
bling 960
blo@@ 961
bloc 962
bloc@@ 963
block 964
blocked 965
blog 966
bloo@@ 967
blood 968
bloom@@ 969
bloomberg 970
blow 971
blu@@ 972
blue 973
bo 974
bo@@ 975
boar@@ 976
board 977
boards 978
boat 979
bob 980
bodies 981
body 982
bol@@ 983
boll@@ 984
bom@@ 985
bomb 986
bomb@@ 987
bombs 988
bon 989
bon@@ 990
bond 991
bonds 992
bone 993
boo@@ 994
book 995
books 996
boom 997
boost 998
bor 999
bor@@ 1000
border 1001
borders 1002
born 1003
borne 1004
borrow@@ 1005
bos@@ 1006
boss 1007
boston 1008
both 1009
bott@@ 1010
bottom 1011
bou 1012
bou@@ 1013
bought 1014
boun@@ 1015
bound 1016
bour@@ 1017
bow 1018
bow@@ 1019
bowl 1020
box 1021
box@@ 1022
boy 1023
boy@@ 1024
boys 1025
br@@ 1026
brad@@ 1027
brain 1028
bran@@ 1029
branch 1030
brand 1031
brands 1032
braz@@ 1033
brazil 1034
bre@@ 1035
brea@@ 1036
break 1037
break@@ 1038
breaking 1039
breaks 1040
breast 1041
bri 1042
bri@@ 1043
brian 1044
brid@@ 1045
bridge 1046
brief 1047
brief@@ 1048
bright 1049
brilli@@ 1050
bring 1051
bringing 1052
brings 1053
brit@@ 1054
britain 1055
britain's 1056
british 1057
bro@@ 1058
broad 1059
broad@@ 1060
broadcast 1061
broader 1062
broke 1063
broken 1064
bron@@ 1065
broo@@ 1066
brook@@ 1067
brother 1068
brothers 1069
brought 1070
brow@@ 1071
brown 1072
bru@@ 1073
brus@@ 1074
brussels 1075
bry@@ 1076
bs 1077
bu 1078
bu@@ 1079
buc@@ 1080
bud@@ 1081
budget 1082
buff@@ 1083
buil@@ 1084
build 1085
building 1086
buildings 1087
built 1088
bul@@ 1089
bun@@ 1090
bur 1091
bur@@ 1092
burden 1093
bure@@ 1094
bureau 1095
bureau@@ 1096
burg 1097
burn 1098
bury 1099
bus 1100
bus@@ 1101
bush 1102
busin@@ 1103
business 1104
business@@ 1105
businesses 1106
busy 1107
but 1108
but@@ 1109
button 1110
buy 1111
buy@@ 1112
buyers 1113
buying 1114
by 1115
by@@ 1116
bye 1117
c 1118
c@@ 1119
ca 1120
ca@@ 1121
cab@@ 1122
cabinet 1123
cable 1124
cad@@ 1125
caf@@ 1126
cal 1127
cal@@ 1128
calcul@@ 1129
cali@@ 1130
califor@@ 1131
california 1132
call 1133
call@@ 1134
called 1135
calling 1136
calls 1137
calm 1138
cam@@ 1139
came 1140
camer@@ 1141
camera 1142
cameras 1143
cameron 1144
camp 1145
camp@@ 1146
campai@@ 1147
campaig@@ 1148
campaign 1149
campaigns 1150
campus 1151
can 1152
can@@ 1153
canad@@ 1154
canada 1155
canadian 1156
canc@@ 1157
cancer 1158
candid@@ 1159
candidate 1160
candidates 1161
cannot 1162
can't 1163
cap 1164
cap@@ 1165
capabilities 1166
capable 1167
capacity 1168
cape 1169
capit@@ 1170
capital 1171
capitol 1172
captain 1173
capture 1174
captured 1175
car 1176
car@@ 1177
carbon 1178
card 1179
cardi@@ 1180
cards 1181
care 1182
care@@ 1183
career 1184
careful 1185
carefully 1186
carol@@ 1187
carolina 1188
carri@@ 1189
carried 1190
carry 1191
carrying 1192
cars 1193
cas@@ 1194
case 1195
cases 1196
cash 1197
cast 1198
cast@@ 1199
casting 1200
castle 1201
casu@@ 1202
cat 1203
cat@@ 1204
catch 1205
categ@@ 1206
category 1207
cathol@@ 1208
catholic 1209
cau 1210
cau@@ 1211
caught 1212
cause 1213
caused 1214
causes 1215
causing 1216
cav 1217
cav@@ 1218
cb@@ 1219
cbs 1220
cc 1221
cc@@ 1222
cd 1223
cd@@ 1224
ce 1225
ce@@ 1226
ced 1227
cel@@ 1228
cele@@ 1229
celebr@@ 1230
celebrity 1231
cell 1232
cell@@ 1233
cells 1234
cement 1235
cen@@ 1236
cent 1237
cent@@ 1238
center 1239
centers 1240
centr@@ 1241
central 1242
centre 1243
century 1244
ceo 1245
cer 1246
cer@@ 1247
cerem@@ 1248
ceremony 1249
certain 1250
certain@@ 1251
certainly 1252
certi@@ 1253
ces 1254
cf@@ 1255
ch 1256
ch@@ 1257
cha@@ 1258
chain 1259
chair 1260
chair@@ 1261
chairman 1262
chall@@ 1263
challeng@@ 1264
challenge 1265
challenges 1266
challenging 1267
cham@@ 1268
chamber 1269
champ@@ 1270
champi@@ 1271
champion 1272
champions 1273
championship 1274
chan@@ 1275
chanc@@ 1276
chance 1277
chancell@@ 1278
chancellor 1279
chances 1280
chang@@ 1281
change 1282
changed 1283
changes 1284
changing 1285
channel 1286
chap@@ 1287
chapter 1288
char@@ 1289
charac@@ 1290
character 1291
character@@ 1292
characters 1293
charge 1294
charged 1295
charges 1296
charity 1297
charles 1298
chase 1299
chat 1300
chav@@ 1301
che@@ 1302
cheap 1303
chec@@ 1304
check 1305
checks 1306
ched 1307
chel@@ 1308
chelsea 1309
chem@@ 1310
chemical 1311
chen 1312
chen@@ 1313
cher 1314
cher@@ 1315
chers 1316
ches 1317
chester 1318
chi@@ 1319
chic@@ 1320
chicago 1321
chief 1322
chil@@ 1323
child 1324
child@@ 1325
childhood 1326
childr@@ 1327
children 1328
children's 1329
chin@@ 1330
china 1331
china's 1332
chinese 1333
ching 1334
cho@@ 1335
choice 1336
choices 1337
choose 1338
chose 1339
chosen 1340
chr@@ 1341
chris 1342
chris@@ 1343
christ@@ 1344
christian 1345
christmas 1346
christop@@ 1347
christopher 1348
chry@@ 1349
chrysler 1350
chur@@ 1351
church 1352
ci@@ 1353
cia 1354
cial 1355
cient 1356
cies 1357
cil 1358
cin@@ 1359
cing 1360
cip@@ 1361
cir@@ 1362
circu@@ 1363
circum@@ 1364
circumst@@ 1365
circumstances 1366
cited 1367
citi 1368
citi@@ 1369
cities 1370
citing 1371
citizen 1372
citizens 1373
city 1374
city's 1375
civ@@ 1376
civil 1377
civil@@ 1378
civilian 1379
civilians 1380
ck 1381
cl@@ 1382
clai@@ 1383
claim 1384
claimed 1385
claiming 1386
claims 1387
clar@@ 1388
class 1389
class@@ 1390
classes 1391
classi@@ 1392
classic 1393
cle 1394
cle@@ 1395
clean 1396
clean@@ 1397
clear 1398
clear@@ 1399
cleared 1400
clearly 1401
cler@@ 1402
cles 1403
cli 1404
cli@@ 1405
click 1406
client 1407
clients 1408
clim@@ 1409
climate 1410
clin@@ 1411
cling 1412
clinical 1413
clint@@ 1414
clinton 1415
clo@@ 1416
clos@@ 1417
close 1418
closed 1419
closely 1420
closer 1421
closing 1422
closure 1423
cloth@@ 1424
clothes 1425
clothing 1426
cloud 1427
clu 1428
clu@@ 1429
club 1430
clubs 1431
cm@@ 1432
cn@@ 1433
cnn 1434
co 1435
co@@ 1436
coach 1437
coal 1438
coali@@ 1439
coalition 1440
coast 1441
coast@@ 1442
coc 1443
coc@@ 1444
code 1445
coff@@ 1446
coffee 1447
col@@ 1448
cold 1449
coll@@ 1450
collabor@@ 1451
collap@@ 1452
collapse 1453
colle@@ 1454
colleague 1455
colleagues 1456
collection 1457
college 1458
colom@@ 1459
colon@@ 1460
color 1461
color@@ 1462
colorado 1463
colum@@ 1464
columbia 1465
com 1466
com@@ 1467
comb@@ 1468
combat 1469
combination 1470
combined 1471
come 1472
comed 1473
comedy 1474
comes 1475
comfor@@ 1476
comfort 1477
comfortable 1478
coming 1479
comm@@ 1480
comman@@ 1481
command 1482
commander 1483
comment 1484
comments 1485
commer@@ 1486
commerce 1487
commercial 1488
commis@@ 1489
commissi@@ 1490
commission 1491
commission@@ 1492
commissioner 1493
commission's 1494
commit 1495
commit@@ 1496
commitment 1497
committed 1498
committee 1499
commo@@ 1500
commod@@ 1501
common 1502
commun@@ 1503
communication 1504
communications 1505
communist 1506
communities 1507
community 1508
comp@@ 1509
compan@@ 1510
companies 1511
company 1512
company's 1513
compar@@ 1514
compared 1515
compe@@ 1516
compens@@ 1517
compensation 1518
compet@@ 1519
compete 1520
competi@@ 1521
competition 1522
competitive 1523
compl@@ 1524
complain@@ 1525
complained 1526
complaint 1527
complaints 1528
comple@@ 1529
complet@@ 1530
complete 1531
completed 1532
completely 1533
complex 1534
compli@@ 1535
compliance 1536
complicated 1537
compos@@ 1538
compre@@ 1539
compreh@@ 1540
comprehensive 1541
compromise 1542
compu@@ 1543
computer 1544
computers 1545
con@@ 1546
conc@@ 1547
conce@@ 1548
concentr@@ 1549
concep@@ 1550
concept 1551
concer@@ 1552
concern 1553
concerned 1554
concerning 1555
concerns 1556
concert 1557
conclu@@ 1558
concluded 1559
conclusion 1560
concrete 1561
condem@@ 1562
condi 1563
condi@@ 1564
condition 1565
conditions 1566
conduc@@ 1567
conduct 1568
conducted 1569
conf@@ 1570
conference 1571
confi@@ 1572
confidence 1573
confident 1574
confir@@ 1575
confirm 1576
confirmed 1577
confl@@ 1578
conflic@@ 1579
conflict 1580
confron@@ 1581
congrat@@ 1582
congres@@ 1583
congress 1584
congressional 1585
conn@@ 1586
connec@@ 1587
connect 1588
connected 1589
connection 1590
connections 1591
consci@@ 1592
consen@@ 1593
consensus 1594
consequ@@ 1595
consequences 1596
conserv@@ 1597
conservation 1598
conservative 1599
conservatives 1600
consid@@ 1601
consider 1602
consider@@ 1603
considerable 1604
consideration 1605
considered 1606
considering 1607
consist@@ 1608
consistent 1609
consolid@@ 1610
conspir@@ 1611
constant 1612
constantly 1613
constitu@@ 1614
constitution 1615
constitutional 1616
construc@@ 1617
construction 1618
consul@@ 1619
consulting 1620
consum@@ 1621
consumer 1622
consumers 1623
consumption 1624
cont@@ 1625
contact 1626
contain 1627
contained 1628
contains 1629
contem@@ 1630
content 1631
contest 1632
context 1633
contin@@ 1634
continu@@ 1635
continue 1636
continued 1637
continues 1638
continuing 1639
contr@@ 1640
contract 1641
contracts 1642
contrast 1643
contribu@@ 1644
contribute 1645
contributed 1646
contribution 1647
contributions 1648
contro@@ 1649
control 1650
control@@ 1651
controlled 1652
controls 1653
controversi@@ 1654
controversial 1655
controversy 1656
conv@@ 1657
conven@@ 1658
conveni@@ 1659
convention 1660
conventional 1661
conver@@ 1662
convers@@ 1663
conversation 1664
convic@@ 1665
convicted 1666
convin@@ 1667
convinced 1668
coo@@ 1669
cook 1670
cool 1671
cool@@ 1672
cooper@@ 1673
cooperation 1674
coordin@@ 1675
cop@@ 1676
cope 1677
copy 1678
cor@@ 1679
core 1680
corner 1681
corp 1682
corpor@@ 1683
corporate 1684
corporation 1685
correc@@ 1686
correct 1687
correspon@@ 1688
correspondent 1689
corrup@@ 1690
corruption 1691
cos@@ 1692
cost 1693
costs 1694
cot@@ 1695
cou@@ 1696
coul@@ 1697
could 1698
couldn't 1699
coun@@ 1700
counc@@ 1701
council 1702
count 1703
counter 1704
counter@@ 1705
countr@@ 1706
countries 1707
country 1708
country's 1709
counts 1710
county 1711
couple 1712
couples 1713
cour@@ 1714
courage 1715
course 1716
court 1717
courts 1718
cov@@ 1719
cover 1720
cover@@ 1721
coverage 1722
covered 1723
covering 1724
cow 1725
cow@@ 1726
cr@@ 1727
crack@@ 1728
craft 1729
craig 1730
crash 1731
craz@@ 1732
crazy 1733
cre@@ 1734
cream 1735
create 1736
created 1737
creating 1738
creation 1739
creative 1740
cred@@ 1741
credit 1742
crete 1743
crew 1744
cri 1745
cri@@ 1746
cric@@ 1747
cricket 1748
crime 1749
crimes 1750
crimin@@ 1751
criminal 1752
cris@@ 1753
crisis 1754
criter@@ 1755
criteria 1756
critic@@ 1757
critical 1758
critici@@ 1759
criticism 1760
criticized 1761
critics 1762
cro@@ 1763
cros@@ 1764
cross 1765
cross@@ 1766
crow@@ 1767
crowd 1768
crown 1769
cru@@ 1770
crucial 1771
crunch 1772
crus@@ 1773
cry 1774
cs 1775
c's 1776
cu 1777
cu@@ 1778
cuba 1779
cul@@ 1780
cultural 1781
culture 1782
cum@@ 1783
cup 1784
cur 1785
cur@@ 1786
curr@@ 1787
currency 1788
current 1789
currently 1790
cus 1791
cus@@ 1792
cust@@ 1793
custody 1794
custom@@ 1795
customer 1796
customers 1797
cut 1798
cuts 1799
cutting 1800
cy@@ 1801
cycle 1802
d 1803
d@@ 1804
da 1805
dad 1806
dad@@ 1807
daf@@ 1808
dail@@ 1809
daily 1810
dal@@ 1811
dall@@ 1812
dallas 1813
dam 1814
dam@@ 1815
damage 1816
damaged 1817
dan 1818
dan@@ 1819
danc@@ 1820
dance 1821
dancing 1822
dang@@ 1823
danger 1824
dangerous 1825
dani@@ 1826
daniel 1827
dar@@ 1828
dark 1829
darling 1830
dat@@ 1831
data 1832
date 1833
dated 1834
dates 1835
daugh@@ 1836
daughter 1837
dav 1838
dav@@ 1839
davi@@ 1840
david 1841
davis 1842
daw@@ 1843
day 1844
day@@ 1845
days 1846
day's 1847
dc 1848
dd 1849
dd@@ 1850
dden 1851
dding 1852
de 1853
de@@ 1854
dea@@ 1855
dead 1856
dead@@ 1857
deadline 1858
deadly 1859
deal 1860
deal@@ 1861
dealing 1862
deals 1863
dean 1864
dear 1865
death 1866
deaths 1867
deb@@ 1868
debate 1869
debt 1870
debut 1871
dec 1872
dec@@ 1873
decade 1874
decades 1875
december 1876
deci@@ 1877
decide 1878
decided 1879
decis@@ 1880
decision 1881
decisions 1882
declar@@ 1883
declared 1884
decline 1885
declined 1886
ded 1887
dedic@@ 1888
dedicated 1889
deep 1890
deep@@ 1891
deeply 1892
def@@ 1893
default 1894
defe@@ 1895
defeat 1896
defence 1897
defend 1898
defend@@ 1899
defended 1900
defending 1901
defense 1902
defensive 1903
deficit 1904
defin@@ 1905
defined 1906
definitely 1907
definition 1908
degre@@ 1909
degree 1910
del 1911
del@@ 1912
delay 1913
delayed 1914
delays 1915
deleg@@ 1916
delegates 1917
deli@@ 1918
deliber@@ 1919
delighted 1920
deliver 1921
deliver@@ 1922
delivered 1923
delivery 1924
dem@@ 1925
demand 1926
demanded 1927
demanding 1928
demands 1929
democr@@ 1930
democracy 1931
democrat 1932
democratic 1933
democrats 1934
demon@@ 1935
demonstr@@ 1936
demonstrate 1937
den 1938
den@@ 1939
dence 1940
denied 1941
denly 1942
dent 1943
denti@@ 1944
dents 1945
deny 1946
dep@@ 1947
depar@@ 1948
depart@@ 1949
department 1950
departure 1951
depen@@ 1952
depend@@ 1953
depends 1954
deplo@@ 1955
depres@@ 1956
depression 1957
depu@@ 1958
deputy 1959
der 1960
der@@ 1961
dered 1962
dering 1963
derly 1964
ders 1965
derson 1966
des 1967
des@@ 1968
descri@@ 1969
describe 1970
described 1971
deser@@ 1972
desi@@ 1973
desig@@ 1974
design 1975
designed 1976
designer 1977
desire 1978
desk 1979
desp@@ 1980
desper@@ 1981
desperate 1982
despite 1983
dest 1984
dest@@ 1985
destroy@@ 1986
destroyed 1987
destruc@@ 1988
destruction 1989
det@@ 1990
detail 1991
detailed 1992
details 1993
detain@@ 1994
detained 1995
detainees 1996
detention 1997
deter@@ 1998
deterior@@ 1999
determin@@ 2000
determine 2001
determined 2002
detro@@ 2003
detroit 2004
dev 2005
dev@@ 2006
devast@@ 2007
develop 2008
develop@@ 2009
developed 2010
developing 2011
development 2012
developments 2013
device 2014
devices 2015
devo@@ 2016
df 2017
dge 2018
dh@@ 2019
di 2020
di@@ 2021
dia 2022
diab@@ 2023
diag@@ 2024
diagnos@@ 2025
dialogue 2026
diam@@ 2027
dian 2028
dib@@ 2029
dible 2030
dic@@ 2031
dick 2032
dict@@ 2033
did 2034
did@@ 2035
didn 2036
didn't 2037
die 2038
died 2039
diego 2040
dies 2041
diet 2042
diff@@ 2043
differ 2044
differ@@ 2045
difference 2046
differences 2047
different 2048
diffic@@ 2049
difficul@@ 2050
difficult 2051
difficulties 2052
dig@@ 2053
digital 2054
dil@@ 2055
din 2056
din@@ 2057
ding 2058
dings 2059
dinner 2060
diplom@@ 2061
diplomatic 2062
dir@@ 2063
direc@@ 2064
direct 2065
directed 2066
direction 2067
directive 2068
directly 2069
director 2070
directors 2071
dis@@ 2072
disap@@ 2073
disappointed 2074
disaster 2075
disci@@ 2076
discipl@@ 2077
disco@@ 2078
discovered 2079
discovery 2080
discrimin@@ 2081
discrimination 2082
discus@@ 2083
discuss 2084
discussed 2085
discussing 2086
discussion 2087
discussions 2088
disease 2089
diseases 2090
dish 2091
dismissed 2092
disney 2093
display 2094
dispu@@ 2095
dispute 2096
disrup@@ 2097
dist@@ 2098
distance 2099
distinc@@ 2100
distr@@ 2101
distribu@@ 2102
distribution 2103
district 2104
distur@@ 2105
div@@ 2106
diversity 2107
divi@@ 2108
divided 2109
division 2110
divor@@ 2111
dle 2112
dless 2113
dly 2114
dm 2115
dn@@ 2116
dna 2117
dness 2118
dn't 2119
do 2120
do@@ 2121
doc 2122
doc@@ 2123
doctor 2124
doctors 2125
docum@@ 2126
document 2127
documents 2128
does 2129
does@@ 2130
doesn 2131
doesn't 2132
dog 2133
dogs 2134
doing 2135
dol 2136
dol@@ 2137
doll@@ 2138
dollar 2139
dollars 2140
dom 2141
dom@@ 2142
domes@@ 2143
domestic 2144
domin@@ 2145
dominated 2146
don 2147
don@@ 2148
donald 2149
done 2150
don't 2151
door 2152
doors 2153
dor@@ 2154
dos 2155
dou 2156
dou@@ 2157
doub@@ 2158
double 2159
doubt 2160
dow@@ 2161
down 2162
down@@ 2163
downturn 2164
dozen 2165
dozens 2166
dp 2167
dr 2168
dr@@ 2169
dra 2170
draft 2171
dram@@ 2172
drama 2173
dramatic 2174
draw 2175
draw@@ 2176
drawing 2177
drawn 2178
dre@@ 2179
dream 2180
dred 2181
dres@@ 2182
dress 2183
dressed 2184
drew 2185
dri 2186
dri@@ 2187
drin@@ 2188
drink 2189
drinking 2190
drive 2191
driven 2192
driver 2193
drivers 2194
driving 2195
dro@@ 2196
drop 2197
dropped 2198
drove 2199
dru@@ 2200
drug 2201
drugs 2202
dry 2203
ds 2204
d's 2205
du 2206
du@@ 2207
dub@@ 2208
dubai 2209
duc@@ 2210
duce 2211
due 2212
dul@@ 2213
dule 2214
dun@@ 2215
dur@@ 2216
dures 2217
during 2218
dutch 2219
duty 2220
dv@@ 2221
dy 2222
dy@@ 2223
dynam@@ 2224
dy's 2225
e 2226
e@@ 2227
each 2228
eag@@ 2229
ean 2230
ear@@ 2231
earlier 2232
early 2233
earned 2234
earnings 2235
earth 2236
earth@@ 2237
earthquake 2238
eas@@ 2239
ease 2240
eases 2241
easier 2242
easily 2243
east 2244
eastern 2245
easy 2246
eat 2247
eating 2248
ec 2249
ec@@ 2250
ece 2251
eces 2252
ech@@ 2253
ecom 2254
econom@@ 2255
economic 2256
economics 2257
economies 2258
economist 2259
economists 2260
economy 2261
ect 2262
ected 2263
ecti@@ 2264
ecting 2265
ection 2266
ections 2267
ective 2268
ectives 2269
ects 2270
ecu 2271
ecu@@ 2272
ed 2273
ed@@ 2274
eda 2275
edge 2276
edi@@ 2277
eding 2278
edings 2279
edit@@ 2280
editing 2281
editor 2282
edly 2283
eds 2284
educ@@ 2285
education 2286
educational 2287
edul@@ 2288
edward 2289
edwards 2290
edy 2291
ee 2292
ee@@ 2293
eed 2294
eeded 2295
ees 2296
ef 2297
ef@@ 2298
eff 2299
eff@@ 2300
effect 2301
effecti@@ 2302
effective 2303
effectively 2304
effects 2305
effici@@ 2306
efficiency 2307
efficient 2308
effor@@ 2309
effort 2310
efforts 2311
eful 2312
eful@@ 2313
efully 2314
eg@@ 2315
ego 2316
egy@@ 2317
egyp@@ 2318
egypt 2319
eh@@ 2320
ei 2321
ei@@ 2322
eigh@@ 2323
eight 2324
eing 2325
either 2326
eived 2327
ek 2328
el 2329
el@@ 2330
eland 2331
eld 2332
elderly 2333
ele@@ 2334
elec 2335
elec@@ 2336
elected 2337
election 2338
elections 2339
elector@@ 2340
electr@@ 2341
electric 2342
electricity 2343
electron@@ 2344
electronic 2345
electronics 2346
eled 2347
element 2348
elements 2349
eler@@ 2350
eless 2351
eli@@ 2352
elim@@ 2353
elimin@@ 2354
eline 2355
eling 2356
elite 2357
eliz@@ 2358
ell 2359
ell@@ 2360
ella 2361
elled 2362
eller 2363
elling 2364
ello 2365
ellow 2366
ells 2367
els 2368
else 2369
else@@ 2370
elsewhere 2371
ely 2372
em 2373
em@@ 2374
email 2375
eman 2376
emb 2377
emb@@ 2378
embarr@@ 2379
embarrass@@ 2380
embassy 2381
ember 2382
embr@@ 2383
emen 2384
ement 2385
ements 2386
emer@@ 2387
emerged 2388
emergency 2389
emerging 2390
emic 2391
emis@@ 2392
emissions 2393
emo@@ 2394
emotional 2395
emp@@ 2396
emph@@ 2397
emphas@@ 2398
emplo@@ 2399
employ@@ 2400
employe@@ 2401
employed 2402
employee 2403
employees 2404
employers 2405
employment 2406
empt 2407
empty 2408
ems 2409
emy 2410
en 2411
en@@ 2412
ena 2413
enab@@ 2414
enable 2415
enc@@ 2416
ence 2417
enced 2418
ences 2419
encies 2420
encing 2421
encour@@ 2422
encourage 2423
encouraged 2424
encouraging 2425
ency 2426
end 2427
end@@ 2428
enda 2429
ende@@ 2430
ended 2431
ender 2432
enders 2433
ending 2434
endor@@ 2435
endous 2436
ends 2437
endu@@ 2438
ene 2439
ened 2440
enemy 2441
ener@@ 2442
energy 2443
enfor@@ 2444
enforcement 2445
eng@@ 2446
engage 2447
engaged 2448
enge 2449
enger 2450
engine 2451
engine@@ 2452
engineering 2453
engl@@ 2454
england 2455
english 2456
enh@@ 2457
ening 2458
enjo@@ 2459
enjoy 2460
enjoyed 2461
enorm@@ 2462
enormous 2463
enough 2464
ens 2465
en's 2466
ens@@ 2467
ense 2468
enses 2469
ensive 2470
ensure 2471
ensuring 2472
ent 2473
en't 2474
ent@@ 2475
ental 2476
entary 2477
entation 2478
ented 2479
enter 2480
enter@@ 2481
entered 2482
entering 2483
enterprise 2484
entertain@@ 2485
entertainment 2486
enthusi@@ 2487
enti 2488
enti@@ 2489
ential 2490
entially 2491
enting 2492
ention 2493
entional 2494
entire 2495
entirely 2496
ently 2497
entr@@ 2498
entre@@ 2499
entrepren@@ 2500
entry 2501
ents 2502
ent's 2503
enty 2504
envir@@ 2505
environ@@ 2506
environment 2507
environmental 2508
eous 2509
eover 2510
ep 2511
ep@@ 2512
eph 2513
epis@@ 2514
episo@@ 2515
episode 2516
eps 2517
eption 2518
equ 2519
equ@@ 2520
equal 2521
equality 2522
equally 2523
equi@@ 2524
equipment 2525
equity 2526
er 2527
er@@ 2528
era 2529
eral 2530
erc@@ 2531
erce 2532
ere 2533
ered 2534
eri@@ 2535
eric 2536
eries 2537
ering 2538
ern@@ 2539
ero@@ 2540
erous 2541
err@@ 2542
error 2543
ers 2544
er's 2545
ership 2546
erson 2547
ery 2548
es 2549
e's 2550
es@@ 2551
escal@@ 2552
escap@@ 2553
escape 2554
esday 2555
esday's 2556
ese 2557
esh 2558
esp@@ 2559
espec@@ 2560
especially 2561
ess 2562
ess@@ 2563
essed 2564
essential 2565
essentially 2566
esses 2567
essing 2568
ession 2569
essions 2570
essive 2571
essor 2572
est 2573
est@@ 2574
establ@@ 2575
establish 2576
established 2577
establishment 2578
estate 2579
ested 2580
ester 2581
esti@@ 2582
estig@@ 2583
estim@@ 2584
estimates 2585
ests 2586
et 2587
et@@ 2588
etary 2589
etes 2590
eth 2591
eth@@ 2592
ethnic 2593
etings 2594
ets 2595
ette 2596
etts 2597
eu 2598
eu@@ 2599
eum 2600
eur@@ 2601
euro 2602
euro@@ 2603
europe 2604
europe@@ 2605
european 2606
ev 2607
ev@@ 2608
eva 2609
evac@@ 2610
evalu@@ 2611
eve 2612
even 2613
evening 2614
event 2615
event@@ 2616
events 2617
eventually 2618
ever 2619
ever@@ 2620
every 2621
every@@ 2622
everybody 2623
everyone 2624
everything 2625
everywhere 2626
evi@@ 2627
evidence 2628
evil 2629
evol@@ 2630
ew@@ 2631
ex 2632
ex@@ 2633
exac@@ 2634
exactly 2635
exam@@ 2636
example 2637
exc@@ 2638
excell@@ 2639
excellent 2640
excep@@ 2641
except 2642
exchange 2643
excited 2644
exciting 2645
exclu@@ 2646
exclusive 2647
execu@@ 2648
executive 2649
executives 2650
exerc@@ 2651
exercise 2652
exhi@@ 2653
exhibi@@ 2654
exist 2655
exist@@ 2656
existing 2657
exit 2658
exp@@ 2659
expan@@ 2660
expand 2661
expanding 2662
expansion 2663
expec 2664
expec@@ 2665
expect 2666
expectations 2667
expected 2668
expects 2669
expense 2670
expenses 2671
expensive 2672
exper@@ 2673
experi@@ 2674
experience 2675
experienced 2676
experiences 2677
experim@@ 2678
expert 2679
expertise 2680
experts 2681
expl@@ 2682
explain 2683
explained 2684
explains 2685
explan@@ 2686
explo@@ 2687
explor@@ 2688
explosion 2689
export 2690
exports 2691
expos@@ 2692
exposed 2693
exposure 2694
expres@@ 2695
express 2696
expressed 2697
ext 2698
ext@@ 2699
exten@@ 2700
extend 2701
extended 2702
extensive 2703
extent 2704
exter@@ 2705
external 2706
extr@@ 2707
extra 2708
extra@@ 2709
extraordinary 2710
extre@@ 2711
extrem@@ 2712
extreme 2713
extremely 2714
ey 2715
ey@@ 2716
eye 2717
eyes 2718
ez 2719
f 2720
f@@ 2721
fa 2722
fa@@ 2723
fab@@ 2724
fac 2725
fac@@ 2726
face 2727
face@@ 2728
facebook 2729
faced 2730
faces 2731
facilities 2732
facility 2733
facing 2734
fact 2735
faction 2736
factor 2737
factors 2738
factory 2739
facts 2740
fai@@ 2741
fail 2742
fail@@ 2743
failed 2744
failing 2745
failure 2746
fair 2747
fair@@ 2748
fairly 2749
faith 2750
fake 2751
fal@@ 2752
fall 2753
fall@@ 2754
fallen 2755
falling 2756
falls 2757
false 2758
fam@@ 2759
famil@@ 2760
famili@@ 2761
familiar 2762
families 2763
family 2764
famous 2765
fan 2766
fan@@ 2767
fans 2768
fant@@ 2769
fantastic 2770
far 2771
far@@ 2772
fare 2773
farm 2774
farmers 2775
fas@@ 2776
fashi@@ 2777
fashion 2778
fast 2779
fast@@ 2780
faster 2781
fat 2782
fat@@ 2783
fate 2784
father 2785
fav 2786
fav@@ 2787
favor 2788
favor@@ 2789
favorite 2790
favour 2791
favour@@ 2792
fbi 2793
fc 2794
fda 2795
fe 2796
fe@@ 2797
fear 2798
feared 2799
fears 2800
feat@@ 2801
feature 2802
features 2803
febr@@ 2804
february 2805
fed 2806
feder@@ 2807
federal 2808
federation 2809
fee 2810
feed 2811
feel 2812
feel@@ 2813
feeling 2814
feelings 2815
feels 2816
fees 2817
feet 2818
fel@@ 2819
fell 2820
fellow 2821
felt 2822
fem@@ 2823
female 2824
fer 2825
fer@@ 2826
ference 2827
fergus@@ 2828
ferguson 2829
ferred 2830
festi@@ 2831
festival 2832
few 2833
fewer 2834
ff 2835
ff@@ 2836
ffs 2837
fi 2838
fi@@ 2839
fic 2840
fic@@ 2841
fication 2842
fied 2843
fiel@@ 2844
field 2845
fields 2846
fies 2847
fif@@ 2848
fifth 2849
fig@@ 2850
figh@@ 2851
fight 2852
fighters 2853
fighting 2854
figu@@ 2855
figure 2856
figures 2857
fil@@ 2858
file 2859
filed 2860
fill 2861
filled 2862
film 2863
films 2864
fin@@ 2865
final 2866
finally 2867
finals 2868
finan@@ 2869
finance 2870
financial 2871
financing 2872
find 2873
finding 2874
findings 2875
finds 2876
fine 2877
fing@@ 2878
finish 2879
finished 2880
fir@@ 2881
fire 2882
fire@@ 2883
fired 2884
fires 2885
firm 2886
firms 2887
first 2888
fis@@ 2889
fiscal 2890
fish 2891
fish@@ 2892
fishing 2893
fit 2894
fit@@ 2895
five 2896
fix 2897
fix@@ 2898
fixed 2899
fl 2900
fl@@ 2901
flag 2902
flat 2903
fle@@ 2904
fled 2905
flex@@ 2906
fli 2907
fli@@ 2908
flight 2909
flights 2910
flo@@ 2911
floo@@ 2912
flood 2913
floor 2914
flori@@ 2915
florida 2916
flow 2917
flow@@ 2918
flu 2919
flu@@ 2920
fly 2921
flying 2922
fo@@ 2923
foc@@ 2924
focus 2925
focused 2926
focusing 2927
fol@@ 2928
foll@@ 2929
follow 2930
followed 2931
following 2932
follows 2933
foo@@ 2934
food 2935
foods 2936
foot 2937
foot@@ 2938
footage 2939
football 2940
for 2941
for@@ 2942
force 2943
forced 2944
forces 2945
forcing 2946
ford 2947
ford@@ 2948
fore 2949
fore@@ 2950
forec@@ 2951
forecast 2952
forei@@ 2953
foreign 2954
forest 2955
forever 2956
forget 2957
form 2958
form@@ 2959
formal 2960
forman@@ 2961
formed 2962
former 2963
forming 2964
forms 2965
formula 2966
fort 2967
fortun@@ 2968
forum 2969
forward 2970
foster 2971
fought 2972
foun@@ 2973
found 2974
found@@ 2975
foundation 2976
founded 2977
founder 2978
four 2979
four@@ 2980
fourth 2981
fox 2982
fox@@ 2983
fr@@ 2984
frag@@ 2985
frame 2986
frame@@ 2987
framework 2988
fran@@ 2989
franc@@ 2990
france 2991
franch@@ 2992
francisco 2993
frank 2994
frank@@ 2995
frau@@ 2996
fraud 2997
fre@@ 2998
free 2999
free@@ 3000
freed@@ 3001
freedom 3002
fren@@ 3003
french 3004
frequ@@ 3005
frequently 3006
fresh 3007
fresh@@ 3008
fri 3009
fri@@ 3010
friday 3011
friend 3012
friend@@ 3013
friendly 3014
friends 3015
fro@@ 3016
from 3017
fron@@ 3018
front 3019
fru@@ 3020
fruit 3021
frustr@@ 3022
fs 3023
ft 3024
ft@@ 3025
fu 3026
fu@@ 3027
fuel 3028
ful 3029
ful@@ 3030
full 3031
fully 3032
fun 3033
fun@@ 3034
func@@ 3035
function 3036
fund 3037
fundam@@ 3038
fundamental 3039
funded 3040
funding 3041
funds 3042
funeral 3043
funny 3044
fur 3045
fur@@ 3046
further 3047
fusion 3048
future 3049
fy 3050
fying 3051
g 3052
g@@ 3053
ga 3054
ga@@ 3055
gaap 3056
gab@@ 3057
gad@@ 3058
gain 3059
gained 3060
gains 3061
gal 3062
gal@@ 3063
galax@@ 3064
gall@@ 3065
gam@@ 3066
game 3067
games 3068
gan 3069
gan@@ 3070
gang 3071
gap 3072
gar@@ 3073
garden 3074
gare@@ 3075
gary 3076
gas 3077
gas@@ 3078
gate 3079
gates 3080
gather@@ 3081
gathered 3082
gathering 3083
gation 3084
gave 3085
gay 3086
gaz 3087
gaz@@ 3088
gaza 3089
ge 3090
ge@@ 3091
gear 3092
ged 3093
gedly 3094
gel 3095
gen 3096
gen@@ 3097
gence 3098
gency 3099
gender 3100
gene@@ 3101
gener@@ 3102
general 3103
generally 3104
generate 3105
generation 3106
gent 3107
gent@@ 3108
gentl@@ 3109
gentlemen 3110
gents 3111
genu@@ 3112
genuine 3113
geor@@ 3114
george 3115
georgi@@ 3116
georgia 3117
ger 3118
ger@@ 3119
german 3120
germany 3121
gers 3122
ges 3123
get 3124
gets 3125
getting 3126
gg@@ 3127
gged 3128
gger 3129
gging 3130
ggl@@ 3131
ggle 3132
ggs 3133
gh 3134
gh@@ 3135
gham 3136
ght 3137
ght@@ 3138
ghted 3139
ghtly 3140
ghts 3141
gi@@ 3142
giant 3143
giants 3144
gib@@ 3145
gible 3146
gies 3147
gif@@ 3148
gift 3149
gil@@ 3150
gin 3151
gin@@ 3152
ging 3153
gins 3154
gir@@ 3155
girl 3156
girl@@ 3157
girls 3158
give 3159
given 3160
gives 3161
giving 3162
gl@@ 3163
glass 3164
gle 3165
glo@@ 3166
glob 3167
glob@@ 3168
global 3169
globe 3170
gm 3171
gm@@ 3172
gment 3173
gn 3174
gn@@ 3175
gners 3176
gni@@ 3177
go 3178
go@@ 3179
goal 3180
goals 3181
god 3182
goes 3183
going 3184
gol@@ 3185
gold 3186
gold@@ 3187
golden 3188
goldman 3189
golf 3190
gon@@ 3191
gone 3192
goo@@ 3193
good 3194
good@@ 3195
goods 3196
google 3197
gor@@ 3198
gordon 3199
gos@@ 3200
got 3201
goti@@ 3202
gott@@ 3203
gotten 3204
gov 3205
govern@@ 3206
governing 3207
government 3208
governments 3209
government's 3210
governor 3211
gp 3212
gr@@ 3213
grace 3214
grad@@ 3215
grade 3216
gradu@@ 3217
grah@@ 3218
graham 3219
gran@@ 3220
grand 3221
grand@@ 3222
grant 3223
granted 3224
grap@@ 3225
graph 3226
graph@@ 3227
grass 3228
grat@@ 3229
grav@@ 3230
gre@@ 3231
great 3232
great@@ 3233
greater 3234
greatest 3235
greece 3236
greek 3237
green 3238
green@@ 3239
greg@@ 3240
gres@@ 3241
gress 3242
grew 3243
gri@@ 3244
gro@@ 3245
grou@@ 3246
ground 3247
grounds 3248
group 3249
groups 3250
group's 3251
grow 3252
grow@@ 3253
growing 3254
grown 3255
growth 3256
gru@@ 3257
gry 3258
gs 3259
gu 3260
gu@@ 3261
guar@@ 3262
guaran@@ 3263
guarante@@ 3264
guarantee 3265
guard 3266
guards 3267
gue 3268
guess 3269
guest 3270
guests 3271
gui@@ 3272
guidance 3273
guide 3274
guidel@@ 3275
guidelines 3276
guil@@ 3277
guilty 3278
gul@@ 3279
gulf 3280
gun 3281
gun@@ 3282
guns 3283
gur@@ 3284
gus@@ 3285
guy 3286
guys 3287
gy 3288
gy@@ 3289
h 3290
h@@ 3291
ha 3292
ha@@ 3293
habit@@ 3294
had 3295
hai@@ 3296
hair 3297
haiti 3298
hal@@ 3299
half 3300
hall 3301
hall@@ 3302
halt 3303
ham 3304
ham@@ 3305
hamas 3306
hamilton 3307
hamp@@ 3308
hampshire 3309
han 3310
han@@ 3311
hand 3312
hand@@ 3313
handed 3314
handle 3315
handling 3316
hands 3317
hang 3318
hang@@ 3319
happ@@ 3320
happen 3321
happened 3322
happening 3323
happens 3324
happy 3325
haps 3326
har@@ 3327
hard 3328
hard@@ 3329
harder 3330
hardly 3331
harm 3332
harris 3333
harry 3334
hart 3335
harv@@ 3336
has 3337
has@@ 3338
hasn't 3339
hat 3340
hat@@ 3341
hate 3342
hatt@@ 3343
haul 3344
have 3345
haven 3346
haven@@ 3347
haven't 3348
having 3349
haw@@ 3350
haz@@ 3351
hd 3352
hd@@ 3353
he 3354
he@@ 3355
head 3356
head@@ 3357
headed 3358
heading 3359
headquarters 3360
heads 3361
heal@@ 3362
health 3363
health@@ 3364
healthcare 3365
healthy 3366
hear 3367
hear@@ 3368
heard 3369
hearing 3370
heart 3371
heat 3372
heav 3373
heav@@ 3374
heavily 3375
heavy 3376
hed 3377
hedge 3378
hel@@ 3379
held 3380
helicop@@ 3381
helicopter 3382
help 3383
helped 3384
helping 3385
helps 3386
hen 3387
hen@@ 3388
henry 3389
her 3390
her@@ 3391
here 3392
herit@@ 3393
heritage 3394
hero 3395
herself 3396
hes 3397
he's 3398
hes@@ 3399
hi 3400
hi@@ 3401
hic@@ 3402
hidden 3403
hide 3404
high 3405
high@@ 3406
higher 3407
highest 3408
highligh@@ 3409
highly 3410
hil@@ 3411
hill 3412
hill@@ 3413
hillary 3414
hills 3415
him 3416
him@@ 3417
himself 3418
hin@@ 3419
hing 3420
hip 3421
hire 3422
hired 3423
his 3424
his@@ 3425
histor@@ 3426
historic 3427
historical 3428
history 3429
hit 3430
hit@@ 3431
hits 3432
hitting 3433
hiv 3434
hman 3435
ho 3436
ho@@ 3437
hol 3438
hol@@ 3439
hold 3440
holder 3441
holders 3442
holding 3443
holds 3444
hole 3445
holi@@ 3446
holiday 3447
holl@@ 3448
hollywood 3449
hom@@ 3450
home 3451
home@@ 3452
homeland 3453
homes 3454
hon@@ 3455
honest 3456
hong 3457
honor 3458
hoo 3459
hoo@@ 3460
hood 3461
hop@@ 3462
hope 3463
hoped 3464
hopefully 3465
hopes 3466
hoping 3467
hor@@ 3468
horri@@ 3469
horse 3470
hos@@ 3471
hosp@@ 3472
hospital 3473
hospitals 3474
host 3475
hosts 3476
hot 3477
hot@@ 3478
hotel 3479
hotels 3480
hou 3481
hou@@ 3482
hour 3483
hours 3484
house 3485
house@@ 3486
houses 3487
housing 3488
houston 3489
how 3490
how@@ 3491
howard 3492
however 3493
h's 3494
htt@@ 3495
http 3496
hu 3497
hu@@ 3498
hud@@ 3499
huge 3500
hum@@ 3501
human 3502
human@@ 3503
humanitarian 3504
humans 3505
hun@@ 3506
hundre@@ 3507
hundred 3508
hundreds 3509
hunt 3510
hur 3511
hur@@ 3512
hurric@@ 3513
hurricane 3514
hurt 3515
hus@@ 3516
husband 3517
hut@@ 3518
hy@@ 3519
hybri@@ 3520
i 3521
i@@ 3522
ia 3523
ial 3524
ially 3525
ian 3526
ians 3527
ib@@ 3528
ibility 3529
ible 3530
ic 3531
ic@@ 3532
ica 3533
ical 3534
ically 3535
icals 3536
icate 3537
icated 3538
ication 3539
ications 3540
ice 3541
ices 3542
ich 3543
ici@@ 3544
icial 3545
ician 3546
icians 3547
icide 3548
icious 3549
icit 3550
icity 3551
ick 3552
ick@@ 3553
icked 3554
icken 3555
icking 3556
icks 3557
icon 3558
icop@@ 3559
ics 3560
ict 3561
id 3562
id@@ 3563
idance 3564
ide 3565
ide@@ 3566
idea 3567
ideas 3568
identi@@ 3569
identified 3570
identify 3571
identity 3572
ides 3573
idity 3574
idly 3575
idol 3576
ids 3577
ie 3578
ie@@ 3579
ied 3580
ief 3581
iefs 3582
iel@@ 3583
ier 3584
iers 3585
ies 3586
iety 3587
iev 3588
iev@@ 3589
ieve 3590
if 3591
ify 3592
ig@@ 3593
igh 3594
igh@@ 3595
ight 3596
ignor@@ 3597
ii 3598
ij@@ 3599
il 3600
il@@ 3601
ile 3602
ile@@ 3603
iled 3604
ili@@ 3605
ilians 3606
iliation 3607
iling 3608
ilit@@ 3609
ilities 3610
ility 3611
ill 3612
i'll 3613
ill@@ 3614
illa 3615
illance 3616
illed 3617
illegal 3618
illi 3619
illi@@ 3620
illin@@ 3621
illing 3622
illinois 3623
illness 3624
ills 3625
illu@@ 3626
illustr@@ 3627
ils 3628
il's 3629
ilton 3630
ily 3631
im 3632
i'm 3633
im@@ 3634
imag@@ 3635
image 3636
images 3637
imagine 3638
imf 3639
imm@@ 3640
immedi@@ 3641
immediate 3642
immediately 3643
immigr@@ 3644
immigrants 3645
immigration 3646
immun@@ 3647
imp@@ 3648
impact 3649
impl@@ 3650
implem@@ 3651
implement 3652
implementation 3653
import@@ 3654
importance 3655
important 3656
impose 3657
imposed 3658
impossible 3659
impres@@ 3660
impressive 3661
impro@@ 3662
improv@@ 3663
improve 3664
improved 3665
improvement 3666
improvements 3667
improving 3668
in 3669
in@@ 3670
ina 3671
inary 3672
inated 3673
ination 3674
inations 3675
inc 3676
inc@@ 3677
ince 3678
incenti@@ 3679
inci@@ 3680
incident 3681
incidents 3682
inclu@@ 3683
include 3684
included 3685
includes 3686
including 3687
income 3688
incre@@ 3689
increas@@ 3690
increase 3691
increased 3692
increases 3693
increasing 3694
increasingly 3695
ind 3696
inde@@ 3697
indeed 3698
independ@@ 3699
independence 3700
independent 3701
index 3702
indi 3703
indi@@ 3704
india 3705
indian 3706
indic@@ 3707
indicated 3708
individu@@ 3709
individual 3710
individuals 3711
indones@@ 3712
indu 3713
indu@@ 3714
industri@@ 3715
industrial 3716
industries 3717
industry 3718
ine 3719
ine@@ 3720
ined 3721
inely 3722
ines 3723
iness 3724
inet 3725
inev@@ 3726
inf@@ 3727
infl@@ 3728
inflation 3729
influ@@ 3730
influence 3731
inform@@ 3732
information 3733
informed 3734
infr@@ 3735
infra@@ 3736
infrastructure 3737
ing 3738
ing@@ 3739
inger 3740
inging 3741
ingly 3742
ings 3743
ing's 3744
ington 3745
ingu@@ 3746
ini 3747
ini@@ 3748
inian 3749
inians 3750
ining 3751
initi@@ 3752
initial 3753
initially 3754
initiative 3755
initiatives 3756
inj 3757
inj@@ 3758
injured 3759
injuries 3760
injury 3761
ink 3762
inn@@ 3763
inning 3764
innoc@@ 3765
innocent 3766
innov@@ 3767
innovation 3768
innovative 3769
ino 3770
inqu@@ 3771
inquiry 3772
ins 3773
in's 3774
ins@@ 3775
insi@@ 3776
inside 3777
insight 3778
insisted 3779
insists 3780
inson 3781
inspec@@ 3782
inspi@@ 3783
inspir@@ 3784
inspired 3785
inst@@ 3786
instance 3787
inste@@ 3788
instead 3789
institu@@ 3790
institute 3791
institution 3792
institutions 3793
instr@@ 3794
instruc@@ 3795
instruments 3796
insul@@ 3797
insur@@ 3798
insurance 3799
insurgents 3800
int 3801
int@@ 3802
integr@@ 3803
integrated 3804
integration 3805
intel@@ 3806
intell@@ 3807
intellec@@ 3808
intellig@@ 3809
intelligence 3810
inten@@ 3811
intend 3812
intended 3813
intense 3814
intent 3815
intention 3816
inter 3817
inter@@ 3818
interest 3819
interest@@ 3820
interested 3821
interesting 3822
interests 3823
interior 3824
internal 3825
international 3826
internet 3827
interpre@@ 3828
interro@@ 3829
interven@@ 3830
intervention 3831
interview 3832
interviews 3833
into 3834
intro@@ 3835
introduc@@ 3836
introduce 3837
introduced 3838
inv 3839
inv@@ 3840
invas@@ 3841
invent@@ 3842
invest 3843
invest@@ 3844
investig@@ 3845
investigate 3846
investigating 3847
investigation 3848
investigations 3849
investigators 3850
investment 3851
investments 3852
investor 3853
investors 3854
invited 3855
invol@@ 3856
involve 3857
involved 3858
involvement 3859
involves 3860
involving 3861
iny 3862
io 3863
ion 3864
ions 3865
ior 3866
ior@@ 3867
ious 3868
iously 3869
iow@@ 3870
iowa 3871
ip 3872
ip@@ 3873
iphone 3874
ir 3875
ir@@ 3876
ira 3877
iran 3878
iranian 3879
iran's 3880
iraq 3881
iraq@@ 3882
iraqi 3883
ire 3884
irel@@ 3885
ireland 3886
iring 3887
irish 3888
iron 3889
irs 3890
iry 3891
is 3892
i's 3893
is@@ 3894
isation 3895
isco 3896
ise 3897
ised 3898
ises 3899
ish 3900
ish@@ 3901
ished 3902
ishes 3903
ishing 3904
ishment 3905
isi@@ 3906
ising 3907
ision 3908
isl@@ 3909
islam 3910
islam@@ 3911
islamic 3912
island 3913
islands 3914
ism 3915
isn 3916
isn't 3917
isol@@ 3918
ison 3919
israel 3920
israel@@ 3921
israeli 3922
iss 3923
issu@@ 3924
issue 3925
issued 3926
issues 3927
ist 3928
ist@@ 3929
istan 3930
istic 3931
istic@@ 3932
istr@@ 3933
ists 3934
it 3935
it@@ 3936
itable 3937
ital 3938
ital@@ 3939
itali@@ 3940
italian 3941
itals 3942
italy 3943
itarian 3944
itation 3945
ite 3946
ited 3947
itely 3948
item 3949
items 3950
iter@@ 3951
ites 3952
ith@@ 3953
ities 3954
iting 3955
ition 3956
itor 3957
itors 3958
its 3959
it's 3960
itself 3961
itt@@ 3962
itten 3963
itter 3964
ittle 3965
ity 3966
ity's 3967
itz 3968
ium 3969
iv@@ 3970
ive 3971
i've 3972
ix 3973
iz 3974
iz@@ 3975
ize 3976
ized 3977
izing 3978
j 3979
j@@ 3980
jac@@ 3981
jack 3982
jack@@ 3983
jackson 3984
jail 3985
jam@@ 3986
james 3987
jan@@ 3988
january 3989
jap@@ 3990
japan 3991
japanese 3992
jason 3993
jay 3994
jaz@@ 3995
je@@ 3996
jean 3997
ject 3998
jected 3999
jects 4000
jeff 4001
jeff@@ 4002
jen@@ 4003
jer@@ 4004
jersey 4005
jerusal@@ 4006
jerusalem 4007
jes@@ 4008
jet 4009
jewish 4010
ji@@ 4011
jim 4012
jim@@ 4013
jo@@ 4014
job 4015
job@@ 4016
jobs 4017
joe 4018
joh@@ 4019
john 4020
john@@ 4021
johnson 4022
join 4023
joined 4024
joining 4025
joint 4026
joke 4027
jon 4028
jon@@ 4029
jonathan 4030
jones 4031
jor@@ 4032
jordan 4033
jos@@ 4034
jose 4035
joseph 4036
jour@@ 4037
journ@@ 4038
journal 4039
journalist 4040
journalists 4041
journey 4042
joy 4043
jr 4044
ju 4045
ju@@ 4046
jud@@ 4047
judge 4048
judges 4049
judgment 4050
judicial 4051
juli@@ 4052
july 4053
jum@@ 4054
jump 4055
jun@@ 4056
june 4057
jur@@ 4058
jured 4059
jury 4060
jus@@ 4061
just 4062
justi@@ 4063
justice 4064
k 4065
k@@ 4066
ka 4067
ka@@ 4068
kab@@ 4069
kabul 4070
kan@@ 4071
kansas 4072
kar@@ 4073
kat@@ 4074
kate 4075
ke 4076
ke@@ 4077
ked 4078
keen 4079
keep 4080
keep@@ 4081
keeper 4082
keeping 4083
keeps 4084
kel 4085
kel@@ 4086
kelly 4087
ken 4088
ken@@ 4089
kenne@@ 4090
kennedy 4091
kept 4092
ker 4093
ker@@ 4094
kers 4095
kes 4096
ket 4097
ket@@ 4098
kets 4099
kev 4100
kev@@ 4101
kevin 4102
key 4103
key@@ 4104
keys 4105
kh@@ 4106
khan 4107
ki 4108
ki@@ 4109
kick 4110
kid 4111
kid@@ 4112
kidn@@ 4113
kids 4114
kie 4115
kies 4116
kil@@ 4117
kill 4118
kill@@ 4119
killed 4120
killer 4121
killing 4122
kim 4123
kin 4124
kin@@ 4125
kind 4126
kinds 4127
king 4128
king@@ 4129
kingdom 4130
kings 4131
kins 4132
kir@@ 4133
kit 4134
kit@@ 4135
kitchen 4136
kle 4137
kn@@ 4138
kne@@ 4139
knee 4140
knew 4141
kni@@ 4142
knoc@@ 4143
know 4144
knowing 4145
knowle@@ 4146
knowledge 4147
known 4148
knows 4149
ko 4150
ko@@ 4151
kong 4152
kore@@ 4153
korea 4154
korean 4155
kos@@ 4156
kov@@ 4157
kp@@ 4158
kr@@ 4159
ks 4160
k's 4161
ku@@ 4162
kur@@ 4163
ky 4164
ky@@ 4165
l 4166
l@@ 4167
la 4168
la@@ 4169
lab 4170
lab@@ 4171
label 4172
labor 4173
labor@@ 4174
labour 4175
lack 4176
lad@@ 4177
laden 4178
ladies 4179
lady 4180
lah 4181
laid 4182
lake 4183
lam@@ 4184
lan 4185
lan@@ 4186
land 4187
land@@ 4188
lands 4189
lane 4190
langu@@ 4191
language 4192
lap@@ 4193
lar@@ 4194
larg@@ 4195
large 4196
largely 4197
larger 4198
largest 4199
las 4200
las@@ 4201
last 4202
lat@@ 4203
late 4204
later 4205
latest 4206
latin 4207
lau@@ 4208
laugh 4209
laugh@@ 4210
laun@@ 4211
launch 4212
launched 4213
lav 4214
lav@@ 4215
law 4216
law@@ 4217
lawmakers 4218
laws 4219
lawsuit 4220
lawy@@ 4221
lawyer 4222
lawyers 4223
lay 4224
lay@@ 4225
ld 4226
ld@@ 4227
ldn 4228
le 4229
le@@ 4230
lead 4231
lead@@ 4232
leader 4233
leaders 4234
leadership 4235
leading 4236
leads 4237
leag@@ 4238
league 4239
leagues 4240
leans 4241
lear 4242
lear@@ 4243
learn 4244
learned 4245
learning 4246
least 4247
leav@@ 4248
leave 4249
leaves 4250
leaving 4251
leban@@ 4252
lec@@ 4253
led 4254
lee 4255
left 4256
leg 4257
leg@@ 4258
legacy 4259
legal 4260
legally 4261
legi@@ 4262
legisl@@ 4263
legislation 4264
legislative 4265
legitimate 4266
legs 4267
lem@@ 4268
len@@ 4269
lenders 4270
lending 4271
leng@@ 4272
length 4273
ler 4274
lers 4275
les 4276
le's 4277
les@@ 4278
less 4279
less@@ 4280
lesson 4281
lessons 4282
let 4283
let@@ 4284
lets 4285
let's 4286
letter 4287
letters 4288
lev@@ 4289
level 4290
levels 4291
lew@@ 4292
lewis 4293
ley 4294
li 4295
li@@ 4296
liam 4297
liber@@ 4298
liberal 4299
libr@@ 4300
library 4301
liby@@ 4302
libya 4303
lic@@ 4304
licen@@ 4305
license 4306
lie 4307
lier 4308
lies 4309
lif@@ 4310
life 4311
life@@ 4312
lift 4313
lig@@ 4314
ligh@@ 4315
light 4316
light@@ 4317
lights 4318
lik@@ 4319
like 4320
liked 4321
likely 4322
likes 4323
lim@@ 4324
limit 4325
limited 4326
limits 4327
lin 4328
lin@@ 4329
line 4330
line@@ 4331
lined 4332
lines 4333
ling 4334
lining 4335
link 4336
linked 4337
links 4338
liqu@@ 4339
lis@@ 4340
lisbon 4341
list 4342
list@@ 4343
listed 4344
listen 4345
listening 4346
liter@@ 4347
little 4348
liv@@ 4349
live 4350
lived 4351
liver@@ 4352
liverpool 4353
lives 4354
living 4355
ll 4356
'll 4357
ll@@ 4358
lloy@@ 4359
lo 4360
lo@@ 4361
load 4362
loan 4363
loans 4364
lob@@ 4365
loc 4366
loc@@ 4367
local 4368
located 4369
location 4370
locations 4371
lock 4372
locked 4373
log 4374
log@@ 4375
lon@@ 4376
london 4377
long 4378
long@@ 4379
longer 4380
longtime 4381
loo@@ 4382
look 4383
looked 4384
looking 4385
looks 4386
lor 4387
lor@@ 4388
lord 4389
los 4390
los@@ 4391
lose 4392
losing 4393
loss 4394
losses 4395
lost 4396
lot 4397
lot@@ 4398
lots 4399
lou 4400
lou@@ 4401
loud 4402
louis 4403
lov 4404
lov@@ 4405
love 4406
loved 4407
low 4408
low@@ 4409
lower 4410
loy@@ 4411
ls 4412
lt@@ 4413
lu@@ 4414
luc@@ 4415
luck 4416
lucky 4417
lun@@ 4418
lunch 4419
lus@@ 4420
lux@@ 4421
luxury 4422
ly 4423
ly@@ 4424
lying 4425
lyn@@ 4426
m 4427
m@@ 4428
ma 4429
ma@@ 4430
mac 4431
mac@@ 4432
mach@@ 4433
machin@@ 4434
machine 4435
mad 4436
mad@@ 4437
madam 4438
made 4439
mag@@ 4440
magaz@@ 4441
magazine 4442
magic 4443
mah@@ 4444
mail 4445
main 4446
main@@ 4447
mainly 4448
maintain 4449
maintained 4450
maj 4451
maj@@ 4452
major 4453
majority 4454
mak@@ 4455
make 4456
maker 4457
makers 4458
makes 4459
making 4460
mal@@ 4461
male 4462
mali@@ 4463
man 4464
man@@ 4465
manag@@ 4466
manage 4467
managed 4468
management 4469
manager 4470
managers 4471
managing 4472
manchester 4473
manhatt@@ 4474
manhattan 4475
mani@@ 4476
mann 4477
manner 4478
man's 4479
manu@@ 4480
manufac@@ 4481
manufactur@@ 4482
manufacturers 4483
manufacturing 4484
many 4485
map 4486
mar 4487
mar@@ 4488
march 4489
margin 4490
mari@@ 4491
marine 4492
mark 4493
mark@@ 4494
marke@@ 4495
marked 4496
market 4497
marketing 4498
markets 4499
marks 4500
marri@@ 4501
marriage 4502
married 4503
mart 4504
martin 4505
mary 4506
mary@@ 4507
maryland 4508
mas 4509
mas@@ 4510
mass 4511
mass@@ 4512
massachus@@ 4513
massachusetts 4514
massive 4515
master 4516
master@@ 4517
mat@@ 4518
match 4519
matches 4520
mate 4521
materi@@ 4522
material 4523
materially 4524
materials 4525
mates 4526
math 4527
matt 4528
matt@@ 4529
matter 4530
matters 4531
matthe@@ 4532
max 4533
maxim@@ 4534
may 4535
may@@ 4536
maybe 4537
mayor 4538
mc@@ 4539
mcc@@ 4540
mccain 4541
me 4542
me@@ 4543
mean 4544
mean@@ 4545
meaning 4546
means 4547
meant 4548
meanwhile 4549
meas@@ 4550
measure 4551
measures 4552
meat 4553
mechan@@ 4554
med 4555
med@@ 4556
medal 4557
medi 4558
medi@@ 4559
media 4560
medic@@ 4561
medical 4562
medicare 4563
medicine 4564
medium 4565
mee@@ 4566
meet 4567
meeting 4568
meetings 4569
mel@@ 4570
mem@@ 4571
memb@@ 4572
member 4573
members 4574
membership 4575
memorial 4576
memory 4577
men 4578
men@@ 4579
ment 4580
ment@@ 4581
mental 4582
mentally 4583
menti@@ 4584
mention 4585
mentioned 4586
ments 4587
ment's 4588
mer 4589
mer@@ 4590
merely 4591
mers 4592
mes 4593
mess@@ 4594
message 4595
messages 4596
met 4597
met@@ 4598
metal 4599
meth@@ 4600
method 4601
methods 4602
metr@@ 4603
metro@@ 4604
mexic@@ 4605
mexican 4606
mexico 4607
mi 4608
mi@@ 4609
miami 4610
mic@@ 4611
micha@@ 4612
michael 4613
michel@@ 4614
michelle 4615
michi@@ 4616
michigan 4617
micro@@ 4618
microsoft 4619
mid 4620
mid@@ 4621
midd@@ 4622
middle 4623
might 4624
migr@@ 4625
mike 4626
mil@@ 4627
miles 4628
mili@@ 4629
milit@@ 4630
militant 4631
militants 4632
military 4633
milk 4634
mill@@ 4635
miller 4636
milli@@ 4637
million 4638
millions 4639
min 4640
min@@ 4641
mind 4642
minds 4643
mine 4644
ming 4645
minim@@ 4646
minimum 4647
mining 4648
minist@@ 4649
minister 4650
ministers 4651
ministr@@ 4652
ministry 4653
minnes@@ 4654
minnesota 4655
minor 4656
minority 4657
minute 4658
minutes 4659
mir@@ 4660
mis@@ 4661
miss 4662
miss@@ 4663
missed 4664
missile 4665
missing 4666
mission 4667
missions 4668
mist@@ 4669
mistake 4670
mistakes 4671
mit 4672
mit@@ 4673
mitch@@ 4674
mits 4675
mitted 4676
mix 4677
mixed 4678
mly 4679
mo 4680
mo@@ 4681
mob 4682
mob@@ 4683
mobile 4684
model 4685
model@@ 4686
models 4687
moder@@ 4688
moderate 4689
modern 4690
modest 4691
modi@@ 4692
moham@@ 4693
mol@@ 4694
mom 4695
mom@@ 4696
moment 4697
moment@@ 4698
moments 4699
momentum 4700
mon 4701
mon@@ 4702
mond 4703
monday 4704
monetary 4705
money 4706
monit@@ 4707
monitor 4708
monitoring 4709
mont 4710
month 4711
month@@ 4712
months 4713
mony 4714
moo@@ 4715
mood 4716
moon 4717
mor@@ 4718
moral 4719
more 4720
morgan 4721
morning 4722
mortg@@ 4723
mortgage 4724
mortgages 4725
mos@@ 4726
moscow 4727
most 4728
mostly 4729
mother 4730
mothers 4731
motion 4732
motiv@@ 4733
motor 4734
motor@@ 4735
mou 4736
mou@@ 4737
moun@@ 4738
mountain 4739
mour@@ 4740
mouth 4741
mov 4742
mov@@ 4743
move 4744
moved 4745
movement 4746
moves 4747
movi@@ 4748
movie 4749
movies 4750
moving 4751
mp 4752
mp@@ 4753
mps 4754
mr 4755
mr@@ 4756
mrs 4757
ms 4758
m's 4759
ms@@ 4760
mu 4761
mu@@ 4762
much 4763
mugab@@ 4764
mul@@ 4765
multi 4766
multi@@ 4767
multiple 4768
mun@@ 4769
mur 4770
mur@@ 4771
murder 4772
murray 4773
mus@@ 4774
museum 4775
music 4776
musical 4777
muslim 4778
muslims 4779
must 4780
mutual 4781
mv@@ 4782
my 4783
my@@ 4784
myan@@ 4785
myself 4786
myster@@ 4787
n 4788
n@@ 4789
na 4790
na@@ 4791
nad@@ 4792
nal 4793
nam@@ 4794
name 4795
named 4796
names 4797
nan@@ 4798
nar@@ 4799
nas@@ 4800
nasa 4801
nat@@ 4802
nati 4803
nati@@ 4804
nation 4805
nation@@ 4806
national 4807
nationally 4808
nations 4809
nation's 4810
nationwide 4811
native 4812
nato 4813
natur 4814
natur@@ 4815
natural 4816
naturally 4817
nature 4818
nav 4819
nav@@ 4820
navi@@ 4821
navy 4822
naz@@ 4823
nba 4824
nbc 4825
nc 4826
ne 4827
ne@@ 4828
near 4829
near@@ 4830
nearby 4831
nearly 4832
nec 4833
nec@@ 4834
necess@@ 4835
necessarily 4836
necessary 4837
neck 4838
ned 4839
nee@@ 4840
need 4841
needed 4842
needs 4843
neg@@ 4844
negative 4845
negoti@@ 4846
negotiations 4847
nei@@ 4848
neigh@@ 4849
neighb@@ 4850
neighbor@@ 4851
neighborhood 4852
neighbors 4853
neither 4854
nel 4855
nel@@ 4856
nell 4857
nels 4858
ner 4859
ner@@ 4860
ners 4861
nerv@@ 4862
nervous 4863
nes 4864
nes@@ 4865
ness 4866
net 4867
net@@ 4868
netanya@@ 4869
nett 4870
network 4871
networking 4872
networks 4873
neu@@ 4874
nev@@ 4875
never 4876
never@@ 4877
nevertheless 4878
new 4879
new@@ 4880
newly 4881
news 4882
news@@ 4883
newsp@@ 4884
newspaper 4885
newspapers 4886
next 4887
ney 4888
neys 4889
nfl 4890
ng 4891
nh@@ 4892
nhs 4893
ni 4894
ni@@ 4895
nia 4896
nic 4897
nic@@ 4898
nice 4899
nick 4900
nie 4901
nific@@ 4902
niger@@ 4903
night 4904
night@@ 4905
nin@@ 4906
nine 4907
ning 4908
nings 4909
nis 4910
nit@@ 4911
no 4912
no@@ 4913
nob@@ 4914
nobody 4915
nom@@ 4916
nomination 4917
nomine@@ 4918
nominee 4919
non 4920
non@@ 4921
none 4922
noon 4923
nor 4924
nor@@ 4925
norm@@ 4926
normal 4927
normally 4928
north 4929
north@@ 4930
northern 4931
nos@@ 4932
not 4933
note 4934
noted 4935
notes 4936
nothing 4937
noti@@ 4938
notic@@ 4939
notice 4940
noticed 4941
nov 4942
nov@@ 4943
novel 4944
november 4945
now 4946
ns 4947
n's 4948
n't 4949
nu@@ 4950
nuc@@ 4951
nuclear 4952
num@@ 4953
numb@@ 4954
number 4955
numbers 4956
numerous 4957
nur@@ 4958
nutri@@ 4959
ny 4960
ny@@ 4961
o 4962
o@@ 4963
ó 4964
ø 4965
ob 4966
ob@@ 4967
obam@@ 4968
obama 4969
obama's 4970
obj@@ 4971
object 4972
objective 4973
objectives 4974
oblig@@ 4975
obligation 4976
observ 4977
observ@@ 4978
obtain 4979
obtained 4980
obvi@@ 4981
obvious 4982
obviously 4983
oc 4984
oc@@ 4985
occas@@ 4986
occasi@@ 4987
occu@@ 4988
occup@@ 4989
occur 4990
occur@@ 4991
occurred 4992
ocean 4993
oci@@ 4994
ock 4995
ocr@@ 4996
octob@@ 4997
october 4998
od 4999
od@@ 5000
ods 5001
ody 5002
oes 5003
of 5004
of@@ 5005
off 5006
off@@ 5007
offensive 5008
offer 5009
offered 5010
offering 5011
offers 5012
offic@@ 5013
office 5014
officer 5015
officers 5016
offices 5017
offici@@ 5018
official 5019
officials 5020
offs 5021
oft 5022
often 5023
ograph@@ 5024
oh 5025
ohi@@ 5026
ohio 5027
oil 5028
ois 5029
ok 5030
ok@@ 5031
ol 5032
ol@@ 5033
ola 5034
old 5035
older 5036
ole 5037
oli@@ 5038
oll@@ 5039
olo@@ 5040
olog@@ 5041
ologi@@ 5042
ological 5043
ologies 5044
ologist 5045
ology 5046
ols 5047
oly@@ 5048
olymp@@ 5049
olympic 5050
olympics 5051
om 5052
om@@ 5053
ome 5054
ome@@ 5055
oming 5056
oms 5057
on 5058
on@@ 5059
ona 5060
onable 5061
onal 5062
onally 5063
onau@@ 5064
once 5065
ond 5066
one 5067
one@@ 5068
oned 5069
onent 5070
onents 5071
oner 5072
ones 5073
one's 5074
oney 5075
ong 5076
ong@@ 5077
ongoing 5078
ongs 5079
onic 5080
oning 5081
online 5082
only 5083
onom@@ 5084
ons 5085
on's 5086
onship 5087
onships 5088
onto 5089
ony 5090
onym@@ 5091
oo@@ 5092
ood 5093
ook 5094
ool 5095
ooth 5096
op 5097
op@@ 5098
ope 5099
open 5100
open@@ 5101
opened 5102
opening 5103
opens 5104
oper@@ 5105
opera 5106
operate 5107
operating 5108
operation 5109
operational 5110
operations 5111
operators 5112
oph@@ 5113
opin@@ 5114
opinion 5115
opp@@ 5116
opponents 5117
opport@@ 5118
opportunities 5119
opportunity 5120
oppos@@ 5121
opposed 5122
opposite 5123
opposition 5124
ops 5125
optim@@ 5126
optimistic 5127
option 5128
options 5129
or 5130
or@@ 5131
ora 5132
oral 5133
orange 5134
orchestr@@ 5135
order 5136
ordered 5137
orders 5138
ordin@@ 5139
ordinary 5140
ore 5141
ore@@ 5142
ored 5143
org 5144
organ@@ 5145
organis@@ 5146
organisation 5147
organisations 5148
organiz@@ 5149
organization 5150
organizations 5151
organized 5152
ori@@ 5153
orial 5154
ories 5155
origin@@ 5156
original 5157
originally 5158
oring 5159
orities 5160
ority 5161
orleans 5162
orm@@ 5163
ors 5164
or's 5165
ort 5166
ory 5167
os 5168
o's 5169
os@@ 5170
oscar 5171
ose 5172
osen 5173
ost 5174
ot 5175
ot@@ 5176
ota 5177
other 5178
other@@ 5179
others 5180
otherwise 5181
otic 5182
ots 5183
ou 5184
ou@@ 5185
oud 5186
ough 5187
ough@@ 5188
ought 5189
oul 5190
oul@@ 5191
ould 5192
ouldn't 5193
oun@@ 5194
ounced 5195
ound 5196
ound@@ 5197
ounded 5198
ounding 5199
ounds 5200
our 5201
our@@ 5202
oured 5203
ouring 5204
ours 5205
ourselves 5206
ous 5207
ous@@ 5208
ously 5209
ousness 5210
out 5211
out@@ 5212
outcome 5213
outlook 5214
outs 5215
outside 5216
outstanding 5217
ov 5218
ov@@ 5219
ova 5220
over 5221
over@@ 5222
overall 5223
overcome 5224
overnight 5225
overseas 5226
overwhel@@ 5227
ovo 5228
ow 5229
ow@@ 5230
owed 5231
owing 5232
owle@@ 5233
own 5234
own@@ 5235
owned 5236
owner 5237
owners 5238
ownership 5239
owns 5240
ows 5241
ox@@ 5242
p 5243
p@@ 5244
pa 5245
pa@@ 5246
pac@@ 5247
pace 5248
paci@@ 5249
pacific 5250
pack 5251
pack@@ 5252
package 5253
pag@@ 5254
page 5255
paid 5256
pain 5257
pain@@ 5258
pair 5259
pak@@ 5260
pakist@@ 5261
pakistan 5262
pakistani 5263
pakistan's 5264
pal 5265
pal@@ 5266
palace 5267
palest@@ 5268
palestinian 5269
palestinians 5270
palin 5271
palm 5272
pan@@ 5273
panel 5274
panic 5275
pap@@ 5276
paper 5277
papers 5278
par@@ 5279
pare 5280
parent 5281
parents 5282
paris 5283
park 5284
parking 5285
parliam@@ 5286
parliament 5287
parliamentary 5288
part 5289
part@@ 5290
parti@@ 5291
partic@@ 5292
partici@@ 5293
particip@@ 5294
participants 5295
participate 5296
participation 5297
particular 5298
particularly 5299
parties 5300
partisan 5301
partly 5302
partner 5303
partner@@ 5304
partners 5305
partnership 5306
parts 5307
party 5308
pas@@ 5309
pass 5310
pass@@ 5311
passed 5312
passeng@@ 5313
passenger 5314
passengers 5315
passing 5316
passion 5317
past 5318
past@@ 5319
pat@@ 5320
path 5321
pati 5322
pati@@ 5323
patient 5324
patients 5325
patri@@ 5326
patrick 5327
patro@@ 5328
patter@@ 5329
pattern 5330
paul 5331
paul@@ 5332
pav 5333
pav@@ 5334
pay 5335
pay@@ 5336
paying 5337
payment 5338
payments 5339
pc 5340
pc@@ 5341
pe 5342
pe@@ 5343
peac@@ 5344
peace 5345
peaceful 5346
ped 5347
pedi@@ 5348
pel@@ 5349
pen@@ 5350
penalty 5351
pend@@ 5352
pending 5353
penn@@ 5354
pennsyl@@ 5355
pennsylvania 5356
pension 5357
pent@@ 5358
pentagon 5359
peo@@ 5360
people 5361
people's 5362
per 5363
per@@ 5364
perc@@ 5365
percent 5366
percent@@ 5367
perf@@ 5368
perfec@@ 5369
perfect 5370
perfectly 5371
perform 5372
performan@@ 5373
performance 5374
performed 5375
performing 5376
perhaps 5377
peri@@ 5378
period 5379
perman@@ 5380
permanent 5381
permission 5382
perry 5383
pers@@ 5384
person 5385
person@@ 5386
personal 5387
personally 5388
personnel 5389
perspec@@ 5390
perspective 5391
persu@@ 5392
pes 5393
pet 5394
peter 5395
peter@@ 5396
peti@@ 5397
petr@@ 5398
petro@@ 5399
pets 5400
pg 5401
ph 5402
ph@@ 5403
phar@@ 5404
pharmac@@ 5405
pharmaceu@@ 5406
phase 5407
phen@@ 5408
phenom@@ 5409
phere 5410
phi@@ 5411
phil 5412
phil@@ 5413
philadelphi@@ 5414
philadelphia 5415
phili@@ 5416
philli@@ 5417
philos@@ 5418
pho@@ 5419
phone 5420
phones 5421
photo 5422
photo@@ 5423
photograph 5424
photograph@@ 5425
photos 5426
phr@@ 5427
phy 5428
phys@@ 5429
physical 5430
pi@@ 5431
pic@@ 5432
pical 5433
pically 5434
pick 5435
picked 5436
picture 5437
pictures 5438
piece 5439
pieces 5440
pil@@ 5441
pill@@ 5442
pilot 5443
pin 5444
pin@@ 5445
ping 5446
pink 5447
pipel@@ 5448
pir@@ 5449
pirates 5450
pit@@ 5451
pitch 5452
pitt@@ 5453
pl@@ 5454
plac@@ 5455
place 5456
placed 5457
places 5458
plan 5459
plan@@ 5460
plane 5461
planes 5462
planet 5463
planned 5464
planning 5465
plans 5466
plant 5467
plants 5468
plastic 5469
plat@@ 5470
plate 5471
platform 5472
play 5473
play@@ 5474
played 5475
player 5476
players 5477
playing 5478
plays 5479
ple 5480
ple@@ 5481
plea 5482
pleaded 5483
pleas@@ 5484
please 5485
pleased 5486
pled 5487
pled@@ 5488
pledged 5489
plenty 5490
ples 5491
ple's 5492
plo@@ 5493
plot 5494
plus 5495
pm 5496
pment 5497
po@@ 5498
poc 5499
poc@@ 5500
pod 5501
poin@@ 5502
point 5503
point@@ 5504
pointed 5505
pointing 5506
pointment 5507
points 5508
pol@@ 5509
poland 5510
poli@@ 5511
polic@@ 5512
police 5513
policies 5514
policy 5515
political 5516
politically 5517
politici@@ 5518
politicians 5519
politics 5520
poll 5521
poll@@ 5522
polls 5523
pollution 5524
pon@@ 5525
pool 5526
poor 5527
poor@@ 5528
pop 5529
pop@@ 5530
pope 5531
popul@@ 5532
popular 5533
population 5534
por@@ 5535
porary 5536
port 5537
port@@ 5538
porters 5539
portfol@@ 5540
portfolio 5541
portr@@ 5542
ports 5543
portu@@ 5544
pos@@ 5545
pose 5546
posed 5547
poses 5548
posi@@ 5549
position 5550
positions 5551
positive 5552
possib@@ 5553
possibility 5554
possible 5555
possibly 5556
post 5557
post@@ 5558
posted 5559
pot@@ 5560
potential 5561
potentially 5562
pover@@ 5563
poverty 5564
pow@@ 5565
power 5566
power@@ 5567
powerful 5568
powers 5569
pp@@ 5570
pped 5571
pper 5572
ppi 5573
pping 5574
pr 5575
pr@@ 5576
pra@@ 5577
prac@@ 5578
practi@@ 5579
practical 5580
practice 5581
practices 5582
praised 5583
pray@@ 5584
pre 5585
pre@@ 5586
pread 5587
prec@@ 5588
preced@@ 5589
preci@@ 5590
predic@@ 5591
predicted 5592
prefer 5593
pregn@@ 5594
pregnant 5595
premi@@ 5596
premier 5597
pren@@ 5598
prepar@@ 5599
prepare 5600
prepared 5601
preparing 5602
pres@@ 5603
prescri@@ 5604
presence 5605
present 5606
presentation 5607
presented 5608
presid@@ 5609
presidency 5610
president 5611
presidential 5612
president's 5613
press 5614
pressed 5615
pressure 5616
pretty 5617
prev@@ 5618
preven@@ 5619
prevent 5620
prevention 5621
previous 5622
previously 5623
pri 5624
pri@@ 5625
pric@@ 5626
price 5627
prices 5628
pride 5629
primar@@ 5630
primarily 5631
primary 5632
prime 5633
prin@@ 5634
princ@@ 5635
prince 5636
princi@@ 5637
principal 5638
principle 5639
principles 5640
print 5641
prior 5642
priorities 5643
priority 5644
pris@@ 5645
prise 5646
prison 5647
prison@@ 5648
prisoners 5649
priv@@ 5650
privacy 5651
private 5652
prize 5653
pro 5654
pro@@ 5655
prob@@ 5656
probably 5657
probe 5658
probl@@ 5659
problem 5660
problems 5661
proc@@ 5662
proce@@ 5663
proced@@ 5664
procedure 5665
procedures 5666
proceedings 5667
process 5668
produc@@ 5669
produce 5670
produced 5671
producer 5672
producers 5673
producing 5674
product 5675
production 5676
productive 5677
products 5678
prof@@ 5679
profes@@ 5680
profession@@ 5681
professional 5682
professionals 5683
professor 5684
profile 5685
profit 5686
profits 5687
progr@@ 5688
program 5689
program@@ 5690
programme 5691
programmes 5692
programs 5693
progres@@ 5694
progress 5695
prohi@@ 5696
project 5697
projects 5698
prom@@ 5699
promin@@ 5700
prominent 5701
promise 5702
promised 5703
promises 5704
promising 5705
promo@@ 5706
promote 5707
promoting 5708
promp@@ 5709
prompted 5710
proof 5711
proper 5712
proper@@ 5713
properly 5714
properties 5715
property 5716
propor@@ 5717
propos@@ 5718
proposal 5719
proposals 5720
proposed 5721
prosecu@@ 5722
prosecution 5723
prosecutor 5724
prosecutors 5725
prosp@@ 5726
prospec@@ 5727
prospect 5728
prospects 5729
prot@@ 5730
prote@@ 5731
protect 5732
protected 5733
protecting 5734
protection 5735
protest 5736
protesters 5737
protests 5738
proud 5739
prov@@ 5740
prove 5741
proved 5742
proven 5743
provi@@ 5744
provide 5745
provided 5746
provider 5747
providers 5748
provides 5749
providing 5750
provin@@ 5751
province 5752
provision 5753
provisions 5754
ps 5755
p's 5756
pse 5757
psy@@ 5758
psych@@ 5759
pt 5760
ption 5761
ptions 5762
pu 5763
pu@@ 5764
pub 5765
publ@@ 5766
public 5767
public@@ 5768
publicly 5769
published 5770
pul@@ 5771
pull 5772
pulled 5773
pun@@ 5774
pur 5775
pur@@ 5776
purch@@ 5777
purchase 5778
purpose 5779
purposes 5780
pursu 5781
pursu@@ 5782
pursue 5783
pus@@ 5784
push 5785
pushed 5786
pushing 5787
put 5788
putin 5789
puts 5790
putting 5791
py@@ 5792
q 5793
q@@ 5794
qa@@ 5795
qaeda 5796
qai@@ 5797
qaida 5798
qc 5799
qu 5800
qu@@ 5801
quake 5802
quali@@ 5803
qualified 5804
quality 5805
quanti@@ 5806
quar@@ 5807
quarter 5808
quarter@@ 5809
quarters 5810
que 5811
que@@ 5812
queen 5813
ques 5814
ques@@ 5815
questi@@ 5816
question 5817
questioned 5818
questions 5819
qui@@ 5820
quick 5821
quick@@ 5822
quickly 5823
quiet 5824
quit 5825
quite 5826
quo@@ 5827
quote 5828
quoted 5829
r 5830
r@@ 5831
ra 5832
ra@@ 5833
rab@@ 5834
rac 5835
rac@@ 5836
race 5837
racing 5838
rad@@ 5839
radi@@ 5840
radical 5841
radio 5842
raf 5843
raf@@ 5844
raid 5845
rail 5846
rail@@ 5847
rain 5848
rain@@ 5849
raise 5850
raised 5851
raising 5852
rally 5853
ram 5854
ram@@ 5855
ran 5856
ran@@ 5857
rand@@ 5858
rang@@ 5859
range 5860
rangers 5861
rap@@ 5862
rape 5863
rapid 5864
rapidly 5865
rapporteur 5866
rar@@ 5867
rare 5868
rarely 5869
rat@@ 5870
rate 5871
rates 5872
rather 5873
rati 5874
rati@@ 5875
rating 5876
ratings 5877
rav 5878
rav@@ 5879
raw 5880
ray 5881
rc 5882
re 5883
re@@ 5884
reach 5885
reached 5886
reaching 5887
reaction 5888
read 5889
read@@ 5890
readers 5891
reading 5892
reads 5893
ready 5894
real 5895
real@@ 5896
reali@@ 5897
reality 5898
realize 5899
realized 5900
really 5901
reas@@ 5902
reason 5903
reasonable 5904
reasons 5905
rebel 5906
rebel@@ 5907
rebels 5908
rec 5909
rec@@ 5910
recall 5911
recalled 5912
recei@@ 5913
receive 5914
received 5915
receiving 5916
recent 5917
recently 5918
recession 5919
reci@@ 5920
reck@@ 5921
reco@@ 5922
recogn@@ 5923
recogni@@ 5924
recognition 5925
recognize 5926
recognized 5927
recomm@@ 5928
recommend@@ 5929
recommendations 5930
recommended 5931
reconc@@ 5932
reconciliation 5933
recor@@ 5934
record 5935
recorded 5936
records 5937
recover 5938
recover@@ 5939
recovered 5940
recovery 5941
recru@@ 5942
recy@@ 5943
red 5944
red@@ 5945
redi@@ 5946
reduc@@ 5947
reduce 5948
reduced 5949
reducing 5950
reduction 5951
ree 5952
ref@@ 5953
refer@@ 5954
reference 5955
referendum 5956
referred 5957
referring 5958
refin@@ 5959
refl@@ 5960
reflect 5961
reflected 5962
reflects 5963
reform 5964
reforms 5965
refu@@ 5966
refuge@@ 5967
refused 5968
reg@@ 5969
regar@@ 5970
regard 5971
regarded 5972
regarding 5973
regardless 5974
regi@@ 5975
regime 5976
region 5977
regional 5978
regions 5979
registered 5980
regre@@ 5981
regul@@ 5982
regular 5983
regularly 5984
regulation 5985
regulations 5986
regulators 5987
regulatory 5988
reid 5989
rein@@ 5990
rejected 5991
rel@@ 5992
rela@@ 5993
related 5994
relati@@ 5995
relating 5996
relation 5997
relations 5998
relationship 5999
relationships 6000
relative 6001
relatively 6002
relatives 6003
rele@@ 6004
release 6005
released 6006
relev@@ 6007
relevant 6008
reli@@ 6009
reliable 6010
relief 6011
religi@@ 6012
religion 6013
religious 6014
reluc@@ 6015
rely 6016
rem@@ 6017
remain 6018
remained 6019
remaining 6020
remains 6021
remark@@ 6022
remarkable 6023
remarks 6024
rememb@@ 6025
remember 6026
rement 6027
rements 6028
remin@@ 6029
remo@@ 6030
remote 6031
remov 6032
remov@@ 6033
remove 6034
removed 6035
ren@@ 6036
renew@@ 6037
rent 6038
rep 6039
rep@@ 6040
repair 6041
repe@@ 6042
repeated 6043
repeatedly 6044
repl@@ 6045
replac@@ 6046
replace 6047
replaced 6048
replied 6049
repor@@ 6050
report 6051
reported 6052
reportedly 6053
reporter 6054
reporters 6055
reporting 6056
reports 6057
repres@@ 6058
represent 6059
represent@@ 6060
representative 6061
representatives 6062
represented 6063
representing 6064
represents 6065
repu@@ 6066
republic 6067
republic@@ 6068
republican 6069
republicans 6070
reputation 6071
requ@@ 6072
request 6073
requests 6074
requi@@ 6075
require 6076
required 6077
requirements 6078
requires 6079
res 6080
res@@ 6081
rescu@@ 6082
rescue 6083
resear@@ 6084
research 6085
researchers 6086
reserv 6087
reserv@@ 6088
reserve 6089
reserves 6090
resid@@ 6091
resident 6092
residents 6093
resig@@ 6094
resist@@ 6095
resistance 6096
resol@@ 6097
resolution 6098
resolve 6099
resolved 6100
resort 6101
resour@@ 6102
resources 6103
resp@@ 6104
respec 6105
respec@@ 6106
respect 6107
respon@@ 6108
respond 6109
responded 6110
response 6111
responsib@@ 6112
responsibility 6113
responsible 6114
ress 6115
rest 6116
restaur@@ 6117
restaurant 6118
restaurants 6119
restor@@ 6120
restore 6121
restric@@ 6122
restrictions 6123
restruc@@ 6124
resul@@ 6125
result 6126
resulting 6127
results 6128
resume 6129
ret@@ 6130
retail 6131
retail@@ 6132
retailers 6133
reti@@ 6134
retired 6135
retirement 6136
return 6137
returned 6138
returning 6139
returns 6140
reuters 6141
reve@@ 6142
reveal 6143
revealed 6144
reven@@ 6145
revenue 6146
revenues 6147
rever@@ 6148
revi@@ 6149
review 6150
revis@@ 6151
revol@@ 6152
revolu@@ 6153
revolution 6154
rey 6155
rhe@@ 6156
ri 6157
ri@@ 6158
ribu@@ 6159
ric@@ 6160
rice 6161
rich 6162
rich@@ 6163
richard 6164
rick 6165
rid 6166
ride 6167
ried 6168
ries 6169
rif@@ 6170
right 6171
rights 6172
ril 6173
ring 6174
rio 6175
ris 6176
ris@@ 6177
rise 6178
rising 6179
risk 6180
risks 6181
rist@@ 6182
rists 6183
rit 6184
rit@@ 6185
rival 6186
rivals 6187
river 6188
ro 6189
ro@@ 6190
road 6191
road@@ 6192
roads 6193
rob 6194
rob@@ 6195
rober@@ 6196
robert 6197
roc@@ 6198
rock 6199
rocket 6200
rod@@ 6201
rodri@@ 6202
roger 6203
rol@@ 6204
role 6205
roles 6206
roll 6207
rolled 6208
rolling 6209
rom@@ 6210
roman@@ 6211
romney 6212
ron 6213
ron@@ 6214
roo@@ 6215
roof 6216
room 6217
rooms 6218
roots 6219
ror 6220
rose 6221
ross 6222
rote 6223
rou 6224
rou@@ 6225
round 6226
rout@@ 6227
route 6228
routine 6229
row 6230
row@@ 6231
rown 6232
roy 6233
roy@@ 6234
royal 6235
ru 6236
ru@@ 6237
rug@@ 6238
rugby 6239
rul@@ 6240
rule 6241
ruled 6242
rules 6243
ruling 6244
rum@@ 6245
run 6246
run@@ 6247
running 6248
runs 6249
rup@@ 6250
rural 6251
rus@@ 6252
rush 6253
russi@@ 6254
russia 6255
russian 6256
ry 6257
ry@@ 6258
ryan 6259
rying 6260
s 6261
's 6262
s@@ 6263
sa 6264
sa@@ 6265
sab@@ 6266
sac@@ 6267
sad 6268
sad@@ 6269
saf@@ 6270
safe 6271
safe@@ 6272
safety 6273
said 6274
sain@@ 6275
sal@@ 6276
sale 6277
sales 6278
salt 6279
sam 6280
sam@@ 6281
same 6282
san 6283
san@@ 6284
sanc@@ 6285
sanctions 6286
sand@@ 6287
santa 6288
sar@@ 6289
sarah 6290
sarko@@ 6291
sarkozy 6292
sas 6293
sat 6294
sat@@ 6295
satell@@ 6296
satellite 6297
satis@@ 6298
satur@@ 6299
saturday 6300
saudi 6301
sav 6302
sav@@ 6303
save 6304
saved 6305
saving 6306
savings 6307
saw 6308
say 6309
saying 6310
says 6311
sbur@@ 6312
sc@@ 6313
scale 6314
scand@@ 6315
scandal 6316
scape 6317
scar@@ 6318
scen@@ 6319
scene 6320
scenes 6321
sch@@ 6322
sche 6323
sche@@ 6324
schedul@@ 6325
schedule 6326
scheduled 6327
schem@@ 6328
scheme 6329
scho@@ 6330
schol@@ 6331
school 6332
school@@ 6333
schools 6334
schwar@@ 6335
sci@@ 6336
science 6337
scienti@@ 6338
scientific 6339
scientists 6340
scom 6341
scope 6342
scor@@ 6343
score 6344
scored 6345
scores 6346
scoring 6347
scot@@ 6348
scotland 6349
scott 6350
scottish 6351
scr@@ 6352
scre@@ 6353
screen 6354
screening 6355
scri@@ 6356
scrut@@ 6357
sd 6358
sd@@ 6359
se 6360
se@@ 6361
sea 6362
sear@@ 6363
search 6364
seas 6365
seas@@ 6366
season 6367
seat 6368
seats 6369
seattle 6370
sec 6371
sec@@ 6372
secon@@ 6373
second 6374
secre@@ 6375
secret 6376
secret@@ 6377
secretary 6378
section 6379
sector 6380
sectors 6381
secu@@ 6382
secur 6383
secur@@ 6384
secure 6385
securities 6386
security 6387
secution 6388
sed 6389
see 6390
see@@ 6391
seeing 6392
seek 6393
seeking 6394
seeks 6395
seem 6396
seem@@ 6397
seemed 6398
seems 6399
seen 6400
sees 6401
seized 6402
sel 6403
sel@@ 6404
select 6405
selected 6406
selection 6407
self 6408
sell 6409
selling 6410
sels 6411
selves 6412
sem@@ 6413
semi 6414
sen 6415
sen@@ 6416
senate 6417
senator 6418
senators 6419
send 6420
sending 6421
senior 6422
sens@@ 6423
sense 6424
sensi@@ 6425
sensitive 6426
sent 6427
sent@@ 6428
sentence 6429
senti@@ 6430
sep@@ 6431
separ@@ 6432
separate 6433
sept@@ 6434
september 6435
sequ@@ 6436
ser@@ 6437
series 6438
serious 6439
seriously 6440
serv 6441
serv@@ 6442
serve 6443
served 6444
serves 6445
service 6446
services 6447
serving 6448
ses 6449
session 6450
sessions 6451
set 6452
set@@ 6453
sets 6454
sett@@ 6455
setting 6456
settl@@ 6457
settled 6458
settlement 6459
seven 6460
seven@@ 6461
seventh 6462
sever@@ 6463
several 6464
severe 6465
sex 6466
sex@@ 6467
sexual 6468
sey 6469
sh 6470
sh@@ 6471
sha@@ 6472
shad@@ 6473
shadow 6474
shall 6475
shan@@ 6476
shape 6477
shar@@ 6478
share 6479
share@@ 6480
shared 6481
shareholders 6482
shares 6483
sharing 6484
sharp 6485
sharp@@ 6486
sharply 6487
she 6488
she@@ 6489
shed 6490
sheet 6491
shel@@ 6492
shell 6493
sheri@@ 6494
she's 6495
shi@@ 6496
shif@@ 6497
shift 6498
shiite 6499
shine 6500
ship 6501
ships 6502
shir@@ 6503
shire 6504
shirt 6505
sho@@ 6506
shoc@@ 6507
shock 6508
shocked 6509
shoes 6510
shoo@@ 6511
shoot 6512
shooting 6513
shop 6514
shop@@ 6515
shopping 6516
shops 6517
shor@@ 6518
shore 6519
short 6520
short@@ 6521
shortly 6522
shot 6523
shots 6524
shou 6525
shou@@ 6526
shoul@@ 6527
should 6528
shoulder 6529
shouldn't 6530
show 6531
show@@ 6532
showed 6533
showing 6534
shown 6535
shows 6536
shr@@ 6537
shu@@ 6538
shut 6539
si 6540
si@@ 6541
sib@@ 6542
sibility 6543
sible 6544
sick 6545
sid@@ 6546
side 6547
sides 6548
sig@@ 6549
sight 6550
sign 6551
sign@@ 6552
signal 6553
signed 6554
signific@@ 6555
significant 6556
significantly 6557
signing 6558
signs 6559
sil@@ 6560
silence 6561
silver 6562
sim@@ 6563
simil@@ 6564
similar 6565
simon 6566
simp@@ 6567
simpl@@ 6568
simple 6569
simply 6570
simul@@ 6571
sin 6572
sin@@ 6573
since 6574
sing 6575
sing@@ 6576
singap@@ 6577
singer 6578
single 6579
sion 6580
sion@@ 6581
sional 6582
sions 6583
sir 6584
sis 6585
sist@@ 6586
sister 6587
sit 6588
sit@@ 6589
site 6590
sites 6591
sitting 6592
situ@@ 6593
situation 6594
situations 6595
sive 6596
sively 6597
six 6598
six@@ 6599
sixth 6600
size 6601
sized 6602
sk@@ 6603
ske@@ 6604
sket@@ 6605
ski 6606
skills 6607
skin 6608
sky 6609
sky@@ 6610
sl 6611
sl@@ 6612
sla@@ 6613
sle@@ 6614
sleep 6615
sleep@@ 6616
sler 6617
sli 6618
sli@@ 6619
slightly 6620
slow 6621
slow@@ 6622
slowly 6623
sm@@ 6624
small 6625
small@@ 6626
smaller 6627
sman 6628
smar@@ 6629
smart 6630
smi@@ 6631
smile 6632
smith 6633
smo@@ 6634
smoke 6635
smoking 6636
smu 6637
smu@@ 6638
sn@@ 6639
snow 6640
snow@@ 6641
so 6642
so@@ 6643
soc 6644
soc@@ 6645
soci@@ 6646
social 6647
society 6648
sof@@ 6649
soft 6650
softw@@ 6651
software 6652
sol@@ 6653
solar 6654
sold 6655
soldi 6656
soldi@@ 6657
soldier 6658
soldiers 6659
sole 6660
solid 6661
solid@@ 6662
solution 6663
solutions 6664
solve 6665
som@@ 6666
some 6667
some@@ 6668
somebody 6669
somehow 6670
someone 6671
something 6672
sometimes 6673
somewhat 6674
somewhere 6675
son 6676
son@@ 6677
song 6678
songs 6679
sons 6680
son's 6681
sony 6682
soon 6683
soph@@ 6684
sophistic@@ 6685
sor@@ 6686
sorry 6687
sort 6688
sou 6689
sou@@ 6690
sought 6691
soul 6692
sound 6693
sounds 6694
sour@@ 6695
source 6696
sources 6697
south 6698
south@@ 6699
southern 6700
sover@@ 6701
soverei@@ 6702
soviet 6703
sp 6704
sp@@ 6705
spac@@ 6706
space 6707
spain 6708
spanish 6709
spar@@ 6710
spe@@ 6711
speak 6712
speaker 6713
speaking 6714
spec 6715
spec@@ 6716
speci@@ 6717
special 6718
specialist 6719
species 6720
specific 6721
specific@@ 6722
specifically 6723
spectac@@ 6724
specul@@ 6725
speculation 6726
spee@@ 6727
speech 6728
speed 6729
spend 6730
spending 6731
spent 6732
spi@@ 6733
spir@@ 6734
spirit 6735
spl@@ 6736
split 6737
spo@@ 6738
spok@@ 6739
spoke 6740
spoken 6741
spokes@@ 6742
spokesman 6743
spokeswoman 6744
spon@@ 6745
spons@@ 6746
sponsor@@ 6747
spor@@ 6748
sport 6749
sports 6750
spot 6751
spot@@ 6752
spr@@ 6753
spread 6754
spring 6755
squ 6756
squ@@ 6757
squad 6758
square 6759
sri 6760
ss 6761
ss@@ 6762
st 6763
st@@ 6764
sta 6765
sta@@ 6766
stab@@ 6767
stabil@@ 6768
stability 6769
stable 6770
stadi@@ 6771
stadium 6772
staf@@ 6773
staff 6774
staff@@ 6775
stage 6776
stages 6777
stake 6778
stal@@ 6779
stam@@ 6780
stan@@ 6781
stance 6782
stand 6783
stand@@ 6784
standard 6785
standards 6786
standing 6787
stands 6788
stant 6789
stantly 6790
star 6791
star@@ 6792
stars 6793
start 6794
started 6795
starting 6796
starts 6797
stat@@ 6798
state 6799
stated 6800
statement 6801
statements 6802
states 6803
state's 6804
station 6805
stations 6806
statis@@ 6807
statistics 6808
status 6809
stay 6810
stayed 6811
staying 6812
ste@@ 6813
sted 6814
steel 6815
stein 6816
stem 6817
step 6818
steph@@ 6819
stephen 6820
stepped 6821
steps 6822
ster 6823
ster@@ 6824
stered 6825
stern 6826
sters 6827
stev@@ 6828
steve 6829
steven 6830
stewart 6831
sti 6832
sti@@ 6833
stic@@ 6834
stick 6835
still 6836
stimul@@ 6837
stimulus 6838
stin 6839
sting 6840
stitu@@ 6841
stly 6842
sto@@ 6843
stoc 6844
stoc@@ 6845
stock 6846
stock@@ 6847
stocks 6848
stol@@ 6849
stolen 6850
ston 6851
stone 6852
stood 6853
stop 6854
stop@@ 6855
stopped 6856
stor@@ 6857
storage 6858
store 6859
stores 6860
stories 6861
storm 6862
story 6863
str@@ 6864
strai@@ 6865
straight 6866
strange 6867
strat@@ 6868
strate@@ 6869
strateg@@ 6870
strategic 6871
strategies 6872
strategy 6873
stre@@ 6874
stream 6875
street 6876
streets 6877
streng@@ 6878
strength 6879
strength@@ 6880
strengthen 6881
stres@@ 6882
stress 6883
stressed 6884
stret@@ 6885
stri@@ 6886
stric@@ 6887
strict 6888
strike 6889
strikes 6890
string 6891
strip 6892
stro@@ 6893
strong 6894
strong@@ 6895
stronger 6896
strongly 6897
stru@@ 6898
struc@@ 6899
struck 6900
structure 6901
struggl@@ 6902
struggle 6903
struggled 6904
struggling 6905
stry 6906
sts 6907
stu@@ 6908
stuck 6909
stud@@ 6910
student 6911
students 6912
studi@@ 6913
studies 6914
studio 6915
study 6916
stuff 6917
stum@@ 6918
stun@@ 6919
sty 6920
sty@@ 6921
style 6922
su 6923
su@@ 6924
sub@@ 6925
subject 6926
subscri@@ 6927
subsequ@@ 6928
subsi@@ 6929
subsidi@@ 6930
subst@@ 6931
substanti@@ 6932
substantial 6933
substitu@@ 6934
succ@@ 6935
succeed 6936
success 6937
success@@ 6938
successful 6939
successfully 6940
such 6941
sud@@ 6942
sudden 6943
suddenly 6944
sue 6945
suff@@ 6946
suffer 6947
suffered 6948
suffering 6949
suffici@@ 6950
sufficient 6951
sug@@ 6952
sugar 6953
sugg@@ 6954
sugges@@ 6955
suggest 6956
suggested 6957
suggesting 6958
suggests 6959
suicide 6960
suit 6961
suits 6962
sul@@ 6963
sum 6964
sum@@ 6965
sume 6966
summer 6967
summit 6968
sun 6969
sun@@ 6970
sunday 6971
sunni 6972
sup@@ 6973
super 6974
super@@ 6975
supervis@@ 6976
supp@@ 6977
suppl@@ 6978
supplies 6979
supply 6980
suppor@@ 6981
support 6982
supported 6983
supporters 6984
supporting 6985
supports 6986
supposed 6987
supre@@ 6988
supreme 6989
sur 6990
sur@@ 6991
sure 6992
sured 6993
surely 6994
sures 6995
surface 6996
surge 6997
surger@@ 6998
surgery 6999
suring 7000
surpris@@ 7001
surprise 7002
surprised 7003
surprising 7004
surr@@ 7005
surrounding 7006
surve@@ 7007
surveillance 7008
survey 7009
survi@@ 7010
surviv@@ 7011
survival 7012
survive 7013
survived 7014
sus 7015
sus@@ 7016
susp@@ 7017
suspect 7018
suspected 7019
suspects 7020
suspen@@ 7021
suspended 7022
suspici@@ 7023
sust@@ 7024
sustain@@ 7025
sustainable 7026
sustained 7027
sv@@ 7028
sw@@ 7029
swe@@ 7030
swee@@ 7031
sweet 7032
swi 7033
swi@@ 7034
swim@@ 7035
swine 7036
swing 7037
swiss 7038
swit@@ 7039
switch 7040
sy 7041
sy@@ 7042
syl@@ 7043
sym@@ 7044
symp@@ 7045
symptom@@ 7046
symptoms 7047
syn@@ 7048
syri@@ 7049
syria 7050
syst@@ 7051
system 7052
systems 7053
t 7054
't 7055
t@@ 7056
ta 7057
ta@@ 7058
tab@@ 7059
table 7060
tables 7061
tably 7062
tac@@ 7063
tack@@ 7064
tackle 7065
tai@@ 7066
tain 7067
tain@@ 7068
tained 7069
taining 7070
tains 7071
tak@@ 7072
take 7073
taken 7074
takes 7075
taking 7076
tal 7077
tal@@ 7078
talent 7079
tali@@ 7080
taliban 7081
talk 7082
talked 7083
talking 7084
talks 7085
tally 7086
tam@@ 7087
tan@@ 7088
tance 7089
tank 7090
tant 7091
tap@@ 7092
tape 7093
tar@@ 7094
targe@@ 7095
target 7096
targeted 7097
targets 7098
tary 7099
task 7100
taste 7101
tation 7102
tations 7103
taught 7104
tax 7105
tax@@ 7106
taxes 7107
taxpay@@ 7108
taxpayers 7109
tay@@ 7110
taylor 7111
tc@@ 7112
tch 7113
tcy 7114
te 7115
te@@ 7116
tea 7117
teach@@ 7118
teacher 7119
teachers 7120
teaching 7121
team 7122
teams 7123
tech 7124
tech@@ 7125
techn@@ 7126
techni@@ 7127
technical 7128
technologies 7129
technology 7130
ted 7131
tedly 7132
tee 7133
teen 7134
teen@@ 7135
teenag@@ 7136
tees 7137
tegr@@ 7138
teh@@ 7139
tehran 7140
tel 7141
tel@@ 7142
tele@@ 7143
telec@@ 7144
telegraph 7145
telephone 7146
telev@@ 7147
television 7148
tell 7149
telling 7150
tells 7151
tem@@ 7152
temp@@ 7153
temper@@ 7154
temporary 7155
ten 7156
ten@@ 7157
tenance 7158
tend 7159
tened 7160
tening 7161
tennis 7162
tens 7163
tension 7164
tensions 7165
tention 7166
ter 7167
ter@@ 7168
tered 7169
tering 7170
term 7171
termin@@ 7172
terms 7173
terr@@ 7174
terri@@ 7175
terrible 7176
territ@@ 7177
territory 7178
terror 7179
terror@@ 7180
terrori@@ 7181
terrorism 7182
terrorist 7183
terrorists 7184
terry 7185
ters 7186
ter's 7187
tery 7188
tes 7189
tes@@ 7190
test 7191
tested 7192
testi@@ 7193
testimony 7194
testing 7195
tests 7196
tex@@ 7197
texas 7198
text 7199
tg@@ 7200
th 7201
th@@ 7202
thail@@ 7203
than 7204
than@@ 7205
thank 7206
thank@@ 7207
thanks 7208
that 7209
thats 7210
that's 7211
the 7212
the@@ 7213
theast 7214
theat@@ 7215
theater 7216
their 7217
theless 7218
them 7219
them@@ 7220
theme 7221
themselves 7222
then 7223
theory 7224
ther 7225
ther@@ 7226
therap@@ 7227
therapy 7228
there 7229
there@@ 7230
therefore 7231
theres 7232
there's 7233
thern 7234
thers 7235
ther's 7236
these 7237
thetic 7238
they 7239
they@@ 7240
they'll 7241
they've 7242
thin 7243
thin@@ 7244
thing 7245
things 7246
think 7247
thinking 7248
thinks 7249
thir@@ 7250
third 7251
this 7252
thol@@ 7253
thom@@ 7254
thomas 7255
thomp@@ 7256
thompson 7257
thor@@ 7258
those 7259
thou 7260
thou@@ 7261
though 7262
thought 7263
thoughts 7264
thous@@ 7265
thousand 7266
thousands 7267
thr@@ 7268
thre@@ 7269
threat 7270
threat@@ 7271
threatened 7272
threatening 7273
threats 7274
three 7275
threw 7276
thri@@ 7277
through 7278
through@@ 7279
throughout 7280
throw 7281
throw@@ 7282
throwing 7283
thrown 7284
ths 7285
thu@@ 7286
thur 7287
thur@@ 7288
thurs@@ 7289
thursday 7290
thus 7291
thusi@@ 7292
thy 7293
ti 7294
ti@@ 7295
tia 7296
tian 7297
tians 7298
tic 7299
tic@@ 7300
tical 7301
tically 7302
tices 7303
tici@@ 7304
ticket 7305
tickets 7306
tics 7307
tie 7308
tied 7309
tier 7310
ties 7311
tiger 7312
tigh@@ 7313
tight 7314
til 7315
til@@ 7316
tile 7317
tili@@ 7318
tility 7319
tim 7320
tim@@ 7321
timate 7322
timately 7323
time 7324
time@@ 7325
times 7326
timing 7327
tin 7328
tin@@ 7329
ting 7330
tings 7331
tiny 7332
tion 7333
tion@@ 7334
tional 7335
tionally 7336
tionary 7337
tioned 7338
tioning 7339
tions 7340
tious 7341
tip 7342
tips 7343
tis 7344
tis@@ 7345
tise 7346
tish 7347
tism 7348
tit@@ 7349
title 7350
titu@@ 7351
tiv@@ 7352
tive 7353
tively 7354
tives 7355
tivity 7356
tle 7357
tled 7358
tly 7359
tm 7360
tm@@ 7361
tment 7362
tn@@ 7363
tnam 7364
to 7365
to@@ 7366
tob 7367
tob@@ 7368
tobacco 7369
today 7370
today's 7371
toge@@ 7372
together 7373
tokyo 7374
tol@@ 7375
told 7376
toler@@ 7377
tom 7378
tom@@ 7379
tomor@@ 7380
tomorrow 7381
ton 7382
ton@@ 7383
tone 7384
tonight 7385
ton's 7386
tony 7387
too 7388
took 7389
tool 7390
tools 7391
top 7392
top@@ 7393
topic 7394
tor 7395
tor@@ 7396
tori@@ 7397
tories 7398
tors 7399
torture 7400
tory 7401
total 7402
totally 7403
tou 7404
tou@@ 7405
touch 7406
tough 7407
tough@@ 7408
tour 7409
tour@@ 7410
tourism 7411
tourists 7412
tournam@@ 7413
tournament 7414
tow@@ 7415
toward 7416
towards 7417
town 7418
towns 7419
tox@@ 7420
toy@@ 7421
toyota 7422
tr@@ 7423
tra 7424
trac 7425
trac@@ 7426
track 7427
trad@@ 7428
trade 7429
tradem@@ 7430
tradi@@ 7431
trading 7432
tradition 7433
traditional 7434
traff@@ 7435
traffic 7436
trag@@ 7437
tragedy 7438
trail 7439
train 7440
train@@ 7441
trained 7442
training 7443
tran@@ 7444
trans@@ 7445
transfer 7446
transi@@ 7447
transition 7448
transl@@ 7449
transpar@@ 7450
transparency 7451
transpor@@ 7452
transport 7453
transportation 7454
trau@@ 7455
trav 7456
trav@@ 7457
travel 7458
travel@@ 7459
traveling 7460
tre@@ 7461
treas@@ 7462
treasury 7463
treat 7464
treat@@ 7465
treated 7466
treatment 7467
treaty 7468
tree 7469
trees 7470
trem@@ 7471
trend 7472
trends 7473
tri 7474
tri@@ 7475
trial 7476
trials 7477
tribal 7478
tribu@@ 7479
tribun@@ 7480
tried 7481
tries 7482
trigg@@ 7483
trip 7484
tro@@ 7485
troops 7486
trou@@ 7487
trouble 7488
troubled 7489
tru@@ 7490
truc@@ 7491
truck 7492
true 7493
truly 7494
trust 7495
truth 7496
try 7497
trying 7498
ts 7499
t's 7500
ts@@ 7501
tt 7502
tt@@ 7503
tta 7504
tting 7505
ttle 7506
tty 7507
tu 7508
tu@@ 7509
tual 7510
tube 7511
tuesday 7512
tum@@ 7513
tun@@ 7514
tur 7515
tur@@ 7516
tural 7517
ture 7518
tured 7519
tures 7520
turing 7521
turk@@ 7522
turkey 7523
turkish 7524
turn 7525
turn@@ 7526
turned 7527
turning 7528
turns 7529
tv 7530
tw@@ 7531
twice 7532
twitter 7533
two 7534
ty 7535
ty@@ 7536
type 7537
types 7538
typical 7539
typically 7540
tz 7541
u 7542
u@@ 7543
ual 7544
ually 7545
uary 7546
uation 7547
uc@@ 7548
uck 7549
ud@@ 7550
ue 7551
ues 7552
ug@@ 7553
uk 7554
ukr@@ 7555
ul 7556
ul@@ 7557
ula 7558
ular 7559
ularly 7560
ulate 7561
ull 7562
ulous 7563
ult 7564
ultimate 7565
ultimately 7566
ults 7567
um 7568
um@@ 7569
umb@@ 7570
ument 7571
uments 7572
ump 7573
ums 7574
un 7575
un@@ 7576
unable 7577
unacceptable 7578
uncertainties 7579
uncertainty 7580
unch 7581
unclear 7582
under 7583
under@@ 7584
understand 7585
understanding 7586
understood 7587
unemployment 7588
unfortun@@ 7589
unfortunately 7590
ung 7591
uni@@ 7592
union 7593
unions 7594
unique 7595
unit 7596
united 7597
unities 7598
units 7599
unity 7600
univers@@ 7601
universal 7602
universities 7603
university 7604
unk 7605
unknown 7606
unless 7607
unlike 7608
unlikely 7609
unprecedented 7610
unt 7611
until 7612
unusual 7613
unve@@ 7614
up 7615
up@@ 7616
update 7617
upon 7618
upper 7619
ups 7620
upset 7621
ur 7622
ur@@ 7623
ura 7624
ural 7625
urban 7626
ure 7627
ured 7628
ures 7629
urge 7630
urged 7631
urgent 7632
uries 7633
uring 7634
urs 7635
ury 7636
us 7637
us@@ 7638
usa 7639
usal@@ 7640
use 7641
used 7642
useful 7643
user 7644
users 7645
uses 7646
using 7647
ust 7648
usual 7649
usually 7650
ut 7651
ut@@ 7652
ute 7653
utely 7654
uters 7655
utes 7656
utili@@ 7657
ution 7658
utions 7659
v 7660
v@@ 7661
va 7662
vac@@ 7663
vacc@@ 7664
vaccine 7665
val 7666
val@@ 7667
vali@@ 7668
valley 7669
vals 7670
valu@@ 7671
valuable 7672
value 7673
values 7674
van 7675
van@@ 7676
vania 7677
var@@ 7678
vari@@ 7679
variety 7680
various 7681
vast 7682
vc 7683
ve 7684
've 7685
ve@@ 7686
ved 7687
vegas 7688
vege@@ 7689
vehic@@ 7690
vehicle 7691
vehicles 7692
vel@@ 7693
vely 7694
vement 7695
ven 7696
ven@@ 7697
vene@@ 7698
veness 7699
venezuel@@ 7700
vent@@ 7701
vention 7702
venture 7703
ver 7704
ver@@ 7705
verage 7706
verdic@@ 7707
verdict 7708
veriz@@ 7709
vern@@ 7710
vers 7711
vers@@ 7712
verse 7713
versi@@ 7714
version 7715
versities 7716
versity 7717
versy 7718
very 7719
ves 7720
veter@@ 7721
veteran 7722
veterans 7723
vey 7724
vi@@ 7725
via 7726
vic@@ 7727
vice 7728
victi@@ 7729
victim 7730
victims 7731
victori@@ 7732
victory 7733
vide@@ 7734
video 7735
videos 7736
vie@@ 7737
viet 7738
view 7739
view@@ 7740
viewed 7741
viewers 7742
viewing 7743
views 7744
vil 7745
vil@@ 7746
vill@@ 7747
villa 7748
village 7749
ville 7750
ving 7751
viol@@ 7752
violence 7753
violent 7754
vir@@ 7755
virgin@@ 7756
virginia 7757
virtu 7758
virtu@@ 7759
virtual 7760
virtually 7761
virus 7762
vis@@ 7763
visa 7764
vision 7765
visions 7766
visit 7767
visited 7768
visiting 7769
visitors 7770
visits 7771
vit@@ 7772
vital 7773
vity 7774
vo@@ 7775
voc 7776
voc@@ 7777
voice 7778
vol@@ 7779
volati@@ 7780
volu@@ 7781
volume 7782
volun@@ 7783
volunte@@ 7784
vote 7785
voted 7786
voters 7787
votes 7788
voting 7789
voy 7790
vs 7791
vt 7792
vul@@ 7793
vulner@@ 7794
vulnerable 7795
vy 7796
w 7797
w@@ 7798
wa@@ 7799
wai@@ 7800
wait 7801
waiting 7802
wake 7803
wal@@ 7804
wales 7805
walk 7806
walked 7807
walker 7808
walking 7809
wall 7810
wall@@ 7811
walls 7812
wan 7813
wan@@ 7814
want 7815
wanted 7816
wants 7817
war 7818
war@@ 7819
ward 7820
wards 7821
ware 7822
warm 7823
warming 7824
warned 7825
warning 7826
warr@@ 7827
wars 7828
wart 7829
was 7830
was@@ 7831
wash@@ 7832
washington 7833
wasn 7834
wasn't 7835
waste 7836
wat@@ 7837
watch 7838
watch@@ 7839
watched 7840
watching 7841
water 7842
water@@ 7843
waters 7844
wav 7845
wav@@ 7846
wave 7847
way 7848
way@@ 7849
ways 7850
we 7851
we@@ 7852
weak 7853
weak@@ 7854
weal@@ 7855
wealth 7856
weap@@ 7857
weapon 7858
weapons 7859
wear 7860
wearing 7861
weather 7862
web 7863
web@@ 7864
website 7865
wedding 7866
wedn@@ 7867
wednesday 7868
wee@@ 7869
week 7870
week@@ 7871
weekend 7872
weekly 7873
weeks 7874
week's 7875
ween 7876
weigh@@ 7877
weight 7878
wel@@ 7879
welcome 7880
welcomed 7881
welfare 7882
well 7883
we'll 7884
well@@ 7885
went 7886
wer 7887
wer@@ 7888
were 7889
weren't 7890
west 7891
west@@ 7892
western 7893
we've 7894
wh 7895
wh@@ 7896
what 7897
what@@ 7898
whatever 7899
what's 7900
whe@@ 7901
whel@@ 7902
when 7903
wher@@ 7904
where 7905
where@@ 7906
whether 7907
which 7908
while 7909
whit@@ 7910
white 7911
who 7912
whol@@ 7913
whole 7914
whom 7915
who's 7916
whose 7917
why 7918
wi 7919
wi@@ 7920
wid@@ 7921
wide 7922
widely 7923
wider 7924
wides@@ 7925
widespread 7926
wife 7927
wil@@ 7928
wild 7929
wild@@ 7930
wildlife 7931
will 7932
will@@ 7933
william 7934
william@@ 7935
williams 7936
willing 7937
wilson 7938
win 7939
win@@ 7940
wind 7941
wind@@ 7942
window 7943
windows 7944
wine 7945
wing 7946
winner 7947
winners 7948
winning 7949
wins 7950
winter 7951
wirel@@ 7952
wireless 7953
wis@@ 7954
wise 7955
wish 7956
wit@@ 7957
with 7958
with@@ 7959
withdraw@@ 7960
within 7961
without 7962
witn@@ 7963
witness 7964
witnesses 7965
wo@@ 7966
wol@@ 7967
wom@@ 7968
woman 7969
women 7970
women's 7971
won 7972
won@@ 7973
wonder 7974
wonder@@ 7975
wonderful 7976
won't 7977
woo@@ 7978
wood 7979
wood@@ 7980
woods 7981
wor@@ 7982
word 7983
words 7984
work 7985
work@@ 7986
worked 7987
worker 7988
workers 7989
working 7990
works 7991
world 7992
world@@ 7993
world's 7994
worldwide 7995
worried 7996
worries 7997
worry 7998
worse 7999
worst 8000
worth 8001
would 8002
wouldn't 8003
wounded 8004
wr@@ 8005
wright 8006
writ@@ 8007
write 8008
writer 8009
writers 8010
writes 8011
writing 8012
written 8013
wrong 8014
wrote 8015
ws 8016
ww@@ 8017
www@@ 8018
wy@@ 8019
x 8020
x@@ 8021
xed 8022
xim@@ 8023
xt 8024
y 8025
y@@ 8026
ya 8027
ya@@ 8028
yahoo 8029
yan@@ 8030
yang 8031
yanke@@ 8032
yankees 8033
yard 8034
ye@@ 8035
year 8036
year@@ 8037
years 8038
year's 8039
yed 8040
yellow 8041
yer 8042
yes 8043
yester@@ 8044
yesterday 8045
yet 8046
yiel@@ 8047
ying 8048
yl@@ 8049
yle 8050
ym@@ 8051
yn 8052
yn@@ 8053
yo@@ 8054
yor@@ 8055
york 8056
you 8057
you@@ 8058
you'll 8059
youn@@ 8060
young 8061
young@@ 8062
younger 8063
your 8064
your@@ 8065
yourself 8066
youth 8067
youtube 8068
you've 8069
ys 8070
y's 8071
ys@@ 8072
yst@@ 8073
ystal 8074
yu@@ 8075
ywood 8076
z 8077
z@@ 8078
za 8079
zar@@ 8080
zation 8081
ze 8082
ze@@ 8083
zeal@@ 8084
zealand 8085
zed 8086
zen 8087
zen@@ 8088
zens 8089
zer 8090
zer@@ 8091
zero 8092
zes 8093
zi@@ 8094
zim@@ 8095
zimbab@@ 8096
zimbabwe 8097
zing 8098
zo@@ 8099
zone 8100
zu@@ 8101
zy 8102
zz@@ 8103
一 8104
丁 8105
七 8106
丄 8107
万 8108
丈 8109
三 8110
上 8111
下 8112
不 8113
与 8114
丏 8115
丐 8116
丑 8117
专 8118
且 8119
丕 8120
世 8121
丘 8122
丙 8123
业 8124
丛 8125
东 8126
丝 8127
丞 8128
丟 8129
両 8130
丢 8131
两 8132
严 8133
丧 8134
丨 8135
个 8136
丫 8137
中 8138
丰 8139
串 8140
临 8141
丶 8142
丸 8143
丹 8144
为 8145
主 8146
丼 8147
丽 8148
举 8149
丿 8150
乂 8151
乃 8152
久 8153
么 8154
义 8155
之 8156
乌 8157
乍 8158
乎 8159
乏 8160
乐 8161
乒 8162
乓 8163
乔 8164
乖 8165
乘 8166
乙 8167
乛 8168
乜 8169
九 8170
乞 8171
也 8172
习 8173
乡 8174
书 8175
乩 8176
买 8177
乱 8178
乳 8179
乸 8180
乾 8181
亁 8182
了 8183
予 8184
争 8185
亊 8186
事 8187
二 8188
亍 8189
于 8190
亏 8191
云 8192
互 8193
亓 8194
五 8195
井 8196
亘 8197
亚 8198
些 8199
亟 8200
亡 8201
亢 8202
交 8203
亥 8204
亦 8205
产 8206
亨 8207
亩 8208
享 8209
京 8210
亭 8211
亮 8212
亲 8213
亳 8214
亵 8215
亶 8216
亹 8217
人 8218
亿 8219
什 8220
仁 8221
仂 8222
仃 8223
仄 8224
仅 8225
仆 8226
仇 8227
今 8228
介 8229
仍 8230
从 8231
仑 8232
仓 8233
仔 8234
仕 8235
他 8236
仗 8237
付 8238
仙 8239
仚 8240
仝 8241
仞 8242
仟 8243
仡 8244
代 8245
令 8246
以 8247
仨 8248
仪 8249
仫 8250
们 8251
仰 8252
仲 8253
仳 8254
仵 8255
件 8256
价 8257
任 8258
仼 8259
份 8260
仿 8261
企 8262
伇 8263
伉 8264
伊 8265
伍 8266
伎 8267
伏 8268
伐 8269
休 8270
众 8271
优 8272
伙 8273
会 8274
伛 8275
伞 8276
伟 8277
传 8278
伢 8279
伤 8280
伥 8281
伦 8282
伧 8283
伪 8284
伫 8285
伬 8286
伯 8287
估 8288
伱 8289
伲 8290
伴 8291
伶 8292
伸 8293
伺 8294
伻 8295
似 8296
伽 8297
伾 8298
佂 8299
佃 8300
但 8301
位 8302
低 8303
住 8304
佐 8305
佑 8306
体 8307
何 8308
佗 8309
佘 8310
余 8311
佚 8312
佛 8313
作 8314
佝 8315
佞 8316
佟 8317
你 8318
佢 8319
佣 8320
佤 8321
佧 8322
佩 8323
佬 8324
佯 8325
佰 8326
佳 8327
佴 8328
佶 8329
佷 8330
佸 8331
佺 8332
佻 8333
佼 8334
佾 8335
使 8336
侃 8337
侄 8338
來 8339
侈 8340
侉 8341
例 8342
侍 8343
侏 8344
侑 8345
侗 8346
侘 8347
供 8348
依 8349
侠 8350
侣 8351
侥 8352
侦 8353
侧 8354
侨 8355
侩 8356
侪 8357
侫 8358
侬 8359
侮 8360
侯 8361
侵 8362
便 8363
俀 8364
係 8365
促 8366
俄 8367
俅 8368
俆 8369
俊 8370
俎 8371
俏 8372
俐 8373
俑 8374
俗 8375
俘 8376
俚 8377
俛 8378
俜 8379
保 8380
俞 8381
俟 8382
俠 8383
信 8384
俢 8385
俣 8386
俤 8387
俥 8388
俦 8389
俨 8390
俩 8391
俪 8392
俫 8393
俬 8394
俭 8395
修 8396
俯 8397
俱 8398
俳 8399
俵 8400
俶 8401
俸 8402
俺 8403
俾 8404
倆 8405
倉 8406
個 8407
倌 8408
倍 8409
倏 8410
們 8411
倒 8412
倓 8413
倔 8414
倕 8415
倘 8416
候 8417
倚 8418
倜 8419
倝 8420
借 8421
倡 8422
倥 8423
倦 8424
倨 8425
倩 8426
倪 8427
倬 8428
倭 8429
倮 8430
倰 8431
倴 8432
倷 8433
债 8434
值 8435
倾 8436
偁 8437
偃 8438
偆 8439
假 8440
偈 8441
偌 8442
偍 8443
偎 8444
偏 8445
偐 8446
偓 8447
偕 8448
偘 8449
做 8450
停 8451
健 8452
偬 8453
偭 8454
偱 8455
偲 8456
偶 8457
偷 8458
偸 8459
偻 8460
偾 8461
偿 8462
傀 8463
傅 8464
傈 8465
傍 8466
傒 8467
傕 8468
傛 8469
傢 8470
傣 8471
傥 8472
傧 8473
储 8474
傩 8475
傫 8476
催 8477
傲 8478
傳 8479
傺 8480
傻 8481
像 8482
僕 8483
僖 8484
僚 8485
僢 8486
僧 8487
僬 8488
僭 8489
僮 8490
僰 8491
僳 8492
僵 8493
僻 8494
儁 8495
儃 8496
億 8497
儆 8498
儋 8499
儍 8500
儎 8501
儒 8502
儡 8503
儿 8504
兀 8505
允 8506
元 8507
兄 8508
充 8509
兆 8510
先 8511
光 8512
克 8513
免 8514
兑 8515
兔 8516
兕 8517
兖 8518
党 8519
兜 8520
兢 8521
入 8522
內 8523
全 8524
兩 8525
八 8526
公 8527
六 8528
兮 8529
兰 8530
共 8531
关 8532
兴 8533
兵 8534
其 8535
具 8536
典 8537
兹 8538
养 8539
兼 8540
兽 8541
冀 8542
内 8543
冇 8544
冈 8545
冉 8546
冋 8547
册 8548
再 8549
冏 8550
冒 8551
冕 8552
冗 8553
写 8554
冚 8555
军 8556
农 8557
冠 8558
冢 8559
冤 8560
冥 8561
冦 8562
冬 8563
冮 8564
冯 8565
冰 8566
冲 8567
决 8568
况 8569
冶 8570
冷 8571
冻 8572
冼 8573
冽 8574
净 8575
凃 8576
凄 8577
准 8578
凇 8579
凉 8580
凊 8581
凋 8582
凌 8583
减 8584
凑 8585
凖 8586
凛 8587
凝 8588
几 8589
凡 8590
凤 8591
凫 8592
凭 8593
凯 8594
凰 8595
凳 8596
凶 8597
凸 8598
凹 8599
出 8600
击 8601
凼 8602
函 8603
凿 8604
刀 8605
刁 8606
刂 8607
刃 8608
刅 8609
分 8610
切 8611
刈 8612
刊 8613
刍 8614
刎 8615
刑 8616
划 8617
刖 8618
列 8619
刘 8620
则 8621
刚 8622
创 8623
初 8624
删 8625
判 8626
別 8627
刨 8628
利 8629
刪 8630
别 8631
刭 8632
刮 8633
到 8634
刳 8635
制 8636
刷 8637
券 8638
刹 8639
刺 8640
刻 8641
刽 8642
刿 8643
剀 8644
剁 8645
剂 8646
剃 8647
削 8648
剋 8649
剌 8650
前 8651
剎 8652
剐 8653
剑 8654
剔 8655
剖 8656
剛 8657
剜 8658
剞 8659
剡 8660
剥 8661
剦 8662
剧 8663
剩 8664
剪 8665
副 8666
剰 8667
割 8668
剳 8669
剽 8670
剿 8671
劄 8672
劈 8673
劉 8674
劑 8675
力 8676
劝 8677
办 8678
功 8679
加 8680
务 8681
劢 8682
劣 8683
动 8684
助 8685
努 8686
劫 8687
劬 8688
劭 8689
励 8690
劲 8691
劳 8692
劵 8693
劸 8694
劻 8695
劼 8696
劾 8697
势 8698
勃 8699
勄 8700
勇 8701
勉 8702
勋 8703
勐 8704
勒 8705
動 8706
勖 8707
勘 8708
募 8709
勤 8710
勰 8711
勹 8712
勺 8713
勾 8714
勿 8715
匀 8716
包 8717
匆 8718
匈 8719
匍 8720
匏 8721
匐 8722
匕 8723
化 8724
北 8725
匙 8726
匝 8727
匠 8728
匡 8729
匣 8730
匦 8731
匪 8732
匮 8733
匹 8734
区 8735
医 8736
匾 8737
匿 8738
十 8739
卂 8740
千 8741
卅 8742
升 8743
午 8744
卉 8745
半 8746
卍 8747
华 8748
协 8749
卑 8750
卒 8751
卓 8752
单 8753
卖 8754
南 8755
単 8756
博 8757
卜 8758
卞 8759
卟 8760
占 8761
卡 8762
卢 8763
卣 8764
卤 8765
卦 8766
卧 8767
卫 8768
卮 8769
卯 8770
印 8771
危 8772
卲 8773
即 8774
却 8775
卵 8776
卷 8777
卸 8778
卿 8779
厂 8780
厄 8781
厅 8782
历 8783
厉 8784
压 8785
厌 8786
厍 8787
厓 8788
厕 8789
厘 8790
厚 8791
厝 8792
原 8793
厡 8794
厢 8795
厥 8796
厦 8797
厨 8798
厩 8799
厭 8800
厮 8801
厶 8802
去 8803
县 8804
叁 8805
参 8806
叄 8807
又 8808
叉 8809
及 8810
友 8811
双 8812
反 8813
収 8814
发 8815
叔 8816
取 8817
受 8818
变 8819
叙 8820
叛 8821
叟 8822
叠 8823
口 8824
古 8825
句 8826
另 8827
叨 8828
叩 8829
只 8830
叫 8831
召 8832
叭 8833
叮 8834
可 8835
台 8836
叱 8837
史 8838
右 8839
叵 8840
叶 8841
号 8842
司 8843
叹 8844
叻 8845
叼 8846
叽 8847
叾 8848
吁 8849
吃 8850
各 8851
吆 8852
吇 8853
合 8854
吉 8855
吊 8856
吋 8857
同 8858
名 8859
后 8860
吏 8861
吐 8862
向 8863
吒 8864
吓 8865
吔 8866
吕 8867
吖 8868
吗 8869
君 8870
吜 8871
吝 8872
吞 8873
吟 8874
吠 8875
吡 8876
吣 8877
吥 8878
否 8879
吧 8880
吨 8881
吩 8882
吪 8883
含 8884
听 8885
吭 8886
吮 8887
启 8888
吱 8889
吲 8890
吴 8891
吵 8892
吶 8893
吸 8894
吹 8895
吻 8896
吼 8897
吽 8898
吾 8899
吿 8900
呀 8901
呂 8902
呃 8903
呆 8904
呈 8905
呉 8906
告 8907
呋 8908
呎 8909
呐 8910
呑 8911
呒 8912
呓 8913
呔 8914
呕 8915
呖 8916
呗 8917
员 8918
呙 8919
呛 8920
呜 8921
呠 8922
呡 8923
呢 8924
呣 8925
呤 8926
呦 8927
周 8928
呯 8929
呱 8930
呲 8931
味 8932
呴 8933
呵 8934
呶 8935
呷 8936
呸 8937
呺 8938
呻 8939
呼 8940
命 8941
咀 8942
咁 8943
咂 8944
咄 8945
咆 8946
咋 8947
和 8948
咍 8949
咎 8950
咏 8951
咐 8952
咒 8953
咔 8954
咕 8955
咖 8956
咗 8957
咘 8958
咙 8959
咚 8960
咛 8961
咝 8962
咢 8963
咣 8964
咤 8965
咦 8966
咧 8967
咨 8968
咩 8969
咪 8970
咫 8971
咬 8972
咭 8973
咯 8974
咱 8975
咲 8976
咳 8977
咴 8978
咵 8979
咸 8980
咹 8981
咺 8982
咻 8983
咽 8984
咾 8985
咿 8986
哀 8987
品 8988
哂 8989
哄 8990
哆 8991
哇 8992
哈 8993
哉 8994
哊 8995
哋 8996
哌 8997
响 8998
哎 8999
哏 9000
哐 9001
哑 9002
哒 9003
哓 9004
哔 9005
哕 9006
哗 9007
哙 9008
哚 9009
哜 9010
哝 9011
哞 9012
哟 9013
哥 9014
哦 9015
哧 9016
哨 9017
哩 9018
哪 9019
哭 9020
哮 9021
哲 9022
哴 9023
哺 9024
哼 9025
哽 9026
哿 9027
唁 9028
唅 9029
唆 9030
唇 9031
唉 9032
唏 9033
唐 9034
唑 9035
唔 9036
唗 9037
唛 9038
唝 9039
唞 9040
唠 9041
唢 9042
唤 9043
唦 9044
唧 9045
唩 9046
唪 9047
唬 9048
售 9049
唯 9050
唰 9051
唱 9052
唳 9053
唵 9054
唷 9055
唸 9056
唻 9057
唾 9058
唿 9059
啁 9060
啂 9061
啃 9062
啄 9063
商 9064
啉 9065
啊 9066
啋 9067
啐 9068
啓 9069
啕 9070
啖 9071
啜 9072
啟 9073
啡 9074
啤 9075
啥 9076
啦 9077
啧 9078
啪 9079
啫 9080
啬 9081
啭 9082
啮 9083
啯 9084
啰 9085
啲 9086
啴 9087
啵 9088
啶 9089
啷 9090
啸 9091
啻 9092
啼 9093
啾 9094
喀 9095
喁 9096
喂 9097
喃 9098
善 9099
喆 9100
喇 9101
喉 9102
喊 9103
喋 9104
喎 9105
喏 9106
喑 9107
喓 9108
喔 9109
喘 9110
喙 9111
喜 9112
喝 9113
喟 9114
喣 9115
喧 9116
喯 9117
喰 9118
喱 9119
喲 9120
喳 9121
喴 9122
喵 9123
喷 9124
喹 9125
喺 9126
喻 9127
喽 9128
喾 9129
嗄 9130
嗅 9131
嗉 9132
嗌 9133
嗍 9134
嗎 9135
嗐 9136
嗑 9137
嗒 9138
嗓 9139
嗔 9140
嗖 9141
嗙 9142
嗜 9143
嗝 9144
嗞 9145
嗟 9146
嗡 9147
嗣 9148
嗤 9149
嗥 9150
嗦 9151
嗨 9152
嗪 9153
嗫 9154
嗬 9155
嗮 9156
嗯 9157
嗰 9158
嗱 9159
嗲 9160
嗳 9161
嗵 9162
嗷 9163
嗺 9164
嗻 9165
嗼 9166
嗽 9167
嗾 9168
嘀 9169
嘁 9170
嘅 9171
嘈 9172
嘉 9173
嘌 9174
嘎 9175
嘏 9176
嘘 9177
嘚 9178
嘛 9179
嘞 9180
嘟 9181
嘠 9182
嘡 9183
嘢 9184
嘣 9185
嘤 9186
嘧 9187
嘬 9188
嘭 9189
嘮 9190
嘱 9191
嘲 9192
嘴 9193
嘶 9194
嘹 9195
嘻 9196
嘿 9197
噁 9198
噌 9199
噎 9200
噐 9201
噔 9202
噗 9203
噘 9204
噙 9205
噜 9206
噢 9207
噤 9208
器 9209
噩 9210
噪 9211
噫 9212
噬 9213
噱 9214
噶 9215
噷 9216
噻 9217
噼 9218
嚄 9219
嚅 9220
嚆 9221
嚇 9222
嚎 9223
嚏 9224
嚒 9225
嚓 9226
嚕 9227
嚟 9228
嚠 9229
嚣 9230
嚯 9231
嚰 9232
嚱 9233
嚷 9234
嚼 9235
囊 9236
囍 9237
囔 9238
囖 9239
囗 9240
囚 9241
四 9242
囝 9243
回 9244
囟 9245
因 9246
囡 9247
团 9248
団 9249
囤 9250
囧 9251
囫 9252
园 9253
囯 9254
困 9255
囱 9256
围 9257
囵 9258
囷 9259
囹 9260
固 9261
国 9262
图 9263
囿 9264
圃 9265
圄 9266
圆 9267
圈 9268
圌 9269
圏 9270
圜 9271
土 9272
圢 9273
圣 9274
圧 9275
在 9276
圩 9277
圪 9278
圫 9279
圬 9280
圭 9281
圮 9282
地 9283
圳 9284
圴 9285
圹 9286
场 9287
圻 9288
圾 9289
址 9290
坂 9291
均 9292
坉 9293
坊 9294
坌 9295
坍 9296
坎 9297
坏 9298
坐 9299
坑 9300
块 9301
坚 9302
坛 9303
坜 9304
坝 9305
坞 9306
坟 9307
坠 9308
坡 9309
坣 9310
坤 9311
坦 9312
坨 9313
坩 9314
坪 9315
坫 9316
坭 9317
坯 9318
坲 9319
坳 9320
坵 9321
坶 9322
坷 9323
坻 9324
坼 9325
垂 9326
垃 9327
垄 9328
垅 9329
垆 9330
垈 9331
型 9332
垌 9333
垒 9334
垓 9335
垕 9336
垚 9337
垛 9338
垞 9339
垟 9340
垠 9341
垡 9342
垢 9343
垣 9344
垤 9345
垦 9346
垧 9347
垩 9348
垫 9349
垭 9350
垮 9351
垲 9352
垴 9353
垵 9354
垸 9355
垻 9356
垿 9357
埂 9358
埃 9359
埆 9360
埇 9361
埋 9362
埌 9363
城 9364
埏 9365
埒 9366
埔 9367
埕 9368
埗 9369
埘 9370
埙 9371
埚 9372
埜 9373
埝 9374
域 9375
埠 9376
埤 9377
埭 9378
埲 9379
埴 9380
埵 9381
埸 9382
培 9383
基 9384
埼 9385
堀 9386
堂 9387
堃 9388
堄 9389
堆 9390
堇 9391
堌 9392
堎 9393
堑 9394
堒 9395
堔 9396
堕 9397
堙 9398
堞 9399
堠 9400
堡 9401
堤 9402
堥 9403
堦 9404
堨 9405
堪 9406
堰 9407
場 9408
堵 9409
堺 9410
堽 9411
塄 9412
塆 9413
塌 9414
塍 9415
塑 9416
塔 9417
塘 9418
塚 9419
塝 9420
塞 9421
塥 9422
塨 9423
填 9424
塬 9425
塭 9426
塱 9427
塾 9428
墀 9429
墁 9430
境 9431
墅 9432
墈 9433
墉 9434
墐 9435
墒 9436
墓 9437
増 9438
墘 9439
墙 9440
增 9441
墟 9442
墡 9443
墨 9444
墩 9445
墴 9446
墺 9447
壁 9448
壅 9449
壊 9450
壎 9451
壑 9452
壒 9453
壕 9454
壤 9455
壥 9456
士 9457
壬 9458
壮 9459
声 9460
売 9461
壳 9462
壵 9463
壶 9464
壹 9465
壽 9466
夀 9467
夂 9468
处 9469
备 9470
夋 9471
夌 9472
复 9473
夎 9474
夏 9475
夔 9476
夕 9477
外 9478
夙 9479
多 9480
夜 9481
够 9482
夠 9483
夤 9484
夥 9485
大 9486
天 9487
太 9488
夫 9489
夭 9490
央 9491
夯 9492
失 9493
夲 9494
头 9495
夶 9496
夷 9497
夸 9498
夹 9499
夺 9500
夼 9501
奀 9502
奁 9503
奂 9504
奄 9505
奇 9506
奈 9507
奉 9508
奋 9509
奎 9510
奏 9511
契 9512
奓 9513
奔 9514
奕 9515
奖 9516
套 9517
奘 9518
奚 9519
奠 9520
奢 9521
奥 9522
奧 9523
奭 9524
女 9525
奴 9526
奶 9527
奸 9528
她 9529
奻 9530
好 9531
妁 9532
如 9533
妃 9534
妄 9535
妆 9536
妇 9537
妈 9538
妊 9539
妍 9540
妏 9541
妑 9542
妒 9543
妓 9544
妖 9545
妗 9546
妘 9547
妙 9548
妚 9549
妝 9550
妞 9551
妠 9552
妣 9553
妤 9554
妥 9555
妧 9556
妨 9557
妩 9558
妪 9559
妫 9560
妮 9561
妯 9562
妱 9563
妲 9564
妳 9565
妹 9566
妻 9567
妾 9568
姆 9569
姉 9570
姊 9571
始 9572
姌 9573
姐 9574
姑 9575
姒 9576
姓 9577
委 9578
姗 9579
姘 9580
姚 9581
姜 9582
姝 9583
姣 9584
姥 9585
姨 9586
姬 9587
姮 9588
姱 9589
姵 9590
姷 9591
姸 9592
姹 9593
姻 9594
姿 9595
威 9596
娃 9597
娄 9598
娅 9599
娆 9600
娇 9601
娈 9602
娉 9603
娌 9604
娑 9605
娓 9606
娘 9607
娜 9608
娞 9609
娟 9610
娠 9611
娡 9612
娣 9613
娥 9614
娦 9615
娩 9616
娬 9617
娱 9618
娲 9619
娴 9620
娶 9621
娼 9622
娿 9623
婀 9624
婄 9625
婅 9626
婆 9627
婉 9628
婊 9629
婒 9630
婓 9631
婕 9632
婗 9633
婚 9634
婞 9635
婠 9636
婢 9637
婥 9638
婦 9639
婧 9640
婪 9641
婰 9642
婳 9643
婴 9644
婵 9645
婶 9646
婷 9647
婺 9648
婻 9649
婼 9650
婿 9651
媃 9652
媄 9653
媌 9654
媒 9655
媕 9656
媗 9657
媚 9658
媛 9659
媞 9660
媢 9661
媥 9662
媪 9663
媱 9664
媲 9665
媳 9666
媵 9667
媸 9668
媺 9669
媽 9670
媾 9671
嫁 9672
嫂 9673
嫄 9674
嫉 9675
嫌 9676
嫍 9677
嫒 9678
嫔 9679
嫖 9680
嫘 9681
嫚 9682
嫜 9683
嫠 9684
嫡 9685
嫣 9686
嫤 9687
嫦 9688
嫩 9689
嫪 9690
嫫 9691
嫯 9692
嫰 9693
嫱 9694
嫲 9695
嬅 9696
嬉 9697
嬖 9698
嬗 9699
嬛 9700
嬝 9701
嬞 9702
嬢 9703
嬲 9704
嬴 9705
嬷 9706
嬿 9707
孀 9708
孃 9709
子 9710
孑 9711
孓 9712
孔 9713
孕 9714
孖 9715
字 9716
存 9717
孙 9718
孚 9719
孛 9720
孜 9721
孝 9722
孟 9723
孢 9724
季 9725
孤 9726
学 9727
孨 9728
孩 9729
孪 9730
孬 9731
孰 9732
孱 9733
孳 9734
孵 9735
學 9736
孺 9737
孽 9738
宁 9739
它 9740
宅 9741
宇 9742
守 9743
安 9744
宋 9745
完 9746
宏 9747
宓 9748
宕 9749
宗 9750
官 9751
宙 9752
定 9753
宛 9754
宜 9755
宝 9756
实 9757
宠 9758
审 9759
客 9760
宣 9761
室 9762
宥 9763
宦 9764
宪 9765
宫 9766
宰 9767
害 9768
宴 9769
宵 9770
家 9771
宸 9772
容 9773
宽 9774
宾 9775
宿 9776
寀 9777
寁 9778
寂 9779
寄 9780
寅 9781
密 9782
寇 9783
富 9784
寐 9785
寒 9786
寓 9787
寔 9788
寖 9789
寛 9790
寝 9791
寞 9792
察 9793
寡 9794
寢 9795
寤 9796
寥 9797
實 9798
寨 9799
寮 9800
寯 9801
寰 9802
寳 9803
寸 9804
对 9805
寺 9806
寻 9807
导 9808
対 9809
寿 9810
封 9811
射 9812
尅 9813
将 9814
將 9815
尉 9816
尊 9817
對 9818
小 9819
少 9820
尒 9821
尓 9822
尔 9823
尕 9824
尖 9825
尘 9826
尙 9827
尚 9828
尛 9829
尜 9830
尝 9831
尢 9832
尤 9833
尥 9834
尧 9835
尬 9836
就 9837
尴 9838
尸 9839
尹 9840
尺 9841
尻 9842
尼 9843
尽 9844
尾 9845
尿 9846
局 9847
屁 9848
层 9849
屃 9850
屄 9851
居 9852
屈 9853
屉 9854
届 9855
屋 9856
屌 9857
屎 9858
屏 9859
屐 9860
屑 9861
展 9862
屙 9863
属 9864
屠 9865
屡 9866
履 9867
屦 9868
屧 9869
屮 9870
屯 9871
山 9872
屹 9873
屺 9874
屻 9875
屾 9876
屿 9877
岀 9878
岁 9879
岂 9880
岇 9881
岈 9882
岌 9883
岍 9884
岎 9885
岐 9886
岑 9887
岔 9888
岕 9889
岖 9890
岗 9891
岘 9892
岙 9893
岚 9894
岛 9895
岜 9896
岞 9897
岠 9898
岢 9899
岣 9900
岥 9901
岩 9902
岫 9903
岬 9904
岭 9905
岱 9906
岳 9907
岵 9908
岷 9909
岸 9910
岺 9911
岿 9912
峁 9913
峂 9914
峄 9915
峇 9916
峋 9917
峎 9918
峒 9919
峙 9920
峡 9921
峣 9922
峤 9923
峥 9924
峦 9925
峧 9926
峨 9927
峩 9928
峪 9929
峭 9930
峮 9931
峯 9932
峰 9933
峳 9934
島 9935
峸 9936
峺 9937
峻 9938
峿 9939
崀 9940
崁 9941
崂 9942
崃 9943
崄 9944
崆 9945
崇 9946
崎 9947
崐 9948
崑 9949
崔 9950
崖 9951
崚 9952
崛 9953
崞 9954
崟 9955
崤 9956
崦 9957
崧 9958
崩 9959
崭 9960
崮 9961
崴 9962
崷 9963
崽 9964
嵇 9965
嵊 9966
嵋 9967
嵌 9968
嵖 9969
嵘 9970
嵚 9971
嵛 9972
嵝 9973
嵩 9974
嵫 9975
嵬 9976
嵯 9977
嵴 9978
嶂 9979
嶅 9980
嶕 9981
嶙 9982
嶝 9983
嶦 9984
嶷 9985
巅 9986
巉 9987
巍 9988
巘 9989
巛 9990
川 9991
州 9992
巡 9993
巢 9994
巣 9995
工 9996
左 9997
巧 9998
巨 9999
巩 10000
巫 10001
差 10002
巯 10003
己 10004
已 10005
巳 10006
巴 10007
巷 10008
巻 10009
巽 10010
巾 10011
巿 10012
币 10013
市 10014
布 10015
帅 10016
帆 10017
师 10018
希 10019
帏 10020
帐 10021
帑 10022
帔 10023
帕 10024
帖 10025
帘 10026
帙 10027
帚 10028
帛 10029
帜 10030
帝 10031
帡 10032
带 10033
帧 10034
師 10035
席 10036
帮 10037
帯 10038
帱 10039
帶 10040
帷 10041
常 10042
帻 10043
帼 10044
帽 10045
幂 10046
幄 10047
幅 10048
幌 10049
幏 10050
幐 10051
幔 10052
幕 10053
幚 10054
幛 10055
幞 10056
幡 10057
幢 10058
幪 10059
幫 10060
干 10061
平 10062
年 10063
并 10064
幷 10065
幸 10066
幺 10067
幻 10068
幼 10069
幽 10070
幾 10071
广 10072
庀 10073
庄 10074
庅 10075
庆 10076
庇 10077
床 10078
庋 10079
序 10080
庐 10081
庑 10082
庒 10083
库 10084
应 10085
底 10086
庖 10087
店 10088
庙 10089
庚 10090
府 10091
庝 10092
庞 10093
废 10094
庠 10095
庥 10096
度 10097
座 10098
庫 10099
庭 10100
庵 10101
庶 10102
康 10103
庸 10104
庹 10105
庼 10106
庾 10107
廉 10108
廊 10109
廋 10110
廑 10111
廒 10112
廓 10113
廖 10114
廛 10115
廣 10116
廪 10117
廴 10118
延 10119
廷 10120
建 10121
廾 10122
廿 10123
开 10124
弁 10125
异 10126
弃 10127
弄 10128
弈 10129
弊 10130
弋 10131
式 10132
弑 10133
弓 10134
引 10135
弗 10136
弘 10137
弛 10138
弟 10139
张 10140
弢 10141
弥 10142
弦 10143
弧 10144
弨 10145
弩 10146
弭 10147
弯 10148
弱 10149
張 10150
弶 10151
強 10152
弹 10153
强 10154
弼 10155
弿 10156
彀 10157
归 10158
当 10159
录 10160
彖 10161
彗 10162
彘 10163
彝 10164
彟 10165
彡 10166
形 10167
彤 10168
彥 10169
彦 10170
彧 10171
彩 10172
彪 10173
彬 10174
彭 10175
彰 10176
影 10177
彳 10178
彷 10179
役 10180
彻 10181
彼 10182
彿 10183
往 10184
征 10185
徂 10186
径 10187
待 10188
徇 10189
很 10190
徉 10191
徊 10192
律 10193
後 10194
徍 10195
徐 10196
徒 10197
徕 10198
得 10199
徘 10200
徙 10201
徜 10202
御 10203
徣 10204
徦 10205
徨 10206
復 10207
循 10208
徭 10209
微 10210
徳 10211
徵 10212
德 10213
徽 10214
忂 10215
心 10216
必 10217
忆 10218
忋 10219
忌 10220
忍 10221
忏 10222
忐 10223
忑 10224
忒 10225
忖 10226
志 10227
忘 10228
忙 10229
応 10230
忝 10231
忠 10232
忡 10233
忤 10234
忧 10235
忨 10236
忪 10237
快 10238
忭 10239
忱 10240
忳 10241
念 10242
忸 10243
忻 10244
忽 10245
忾 10246
忿 10247
怀 10248
态 10249
怂 10250
怃 10251
怄 10252
怅 10253
怆 10254
怊 10255
怍 10256
怎 10257
怏 10258
怒 10259
怔 10260
怕 10261
怖 10262
怙 10263
怛 10264
怜 10265
思 10266
怠 10267
怡 10268
急 10269
怦 10270
性 10271
怨 10272
怩 10273
怪 10274
怫 10275
怯 10276
怱 10277
怵 10278
总 10279
怼 10280
怿 10281
恁 10282
恂 10283
恃 10284
恊 10285
恋 10286
恍 10287
恐 10288
恒 10289
恕 10290
恘 10291
恙 10292
恚 10293
恢 10294
恣 10295
恤 10296
恨 10297
恩 10298
恪 10299
恫 10300
恬 10301
恭 10302
息 10303
恰 10304
恳 10305
恵 10306
恶 10307
恸 10308
恹 10309
恺 10310
恻 10311
恼 10312
恽 10313
恿 10314
悄 10315
悉 10316
悌 10317
悍 10318
悔 10319
悖 10320
悗 10321
悚 10322
悝 10323
悟 10324
悠 10325
患 10326
悦 10327
您 10328
悫 10329
悬 10330
悭 10331
悯 10332
悱 10333
悲 10334
悳 10335
悴 10336
悸 10337
悻 10338
悼 10339
情 10340
惆 10341
惇 10342
惊 10343
惋 10344
惑 10345
惕 10346
惗 10347
惘 10348
惚 10349
惛 10350
惜 10351
惝 10352
惞 10353
惟 10354
惠 10355
惡 10356
惢 10357
惦 10358
惧 10359
惨 10360
惩 10361
惫 10362
惬 10363
惭 10364
惮 10365
惯 10366
惰 10367
想 10368
惴 10369
惶 10370
惹 10371
惺 10372
愀 10373
愁 10374
愆 10375
愈 10376
愉 10377
愍 10378
愎 10379
意 10380
愕 10381
愘 10382
愚 10383
愛 10384
愝 10385
感 10386
愠 10387
愢 10388
愣 10389
愤 10390
愦 10391
愧 10392
愫 10393
愰 10394
愽 10395
愿 10396
慈 10397
慊 10398
慌 10399
慎 10400
慑 10401
慒 10402
慕 10403
慝 10404
慠 10405
慢 10406
慥 10407
慧 10408
慨 10409
慫 10410
慰 10411
慵 10412
慷 10413
憋 10414
憎 10415
憔 10416
憧 10417
憨 10418
憩 10419
憬 10420
憭 10421
憷 10422
憾 10423
懂 10424
懆 10425
懈 10426
應 10427
懊 10428
懋 10429
懐 10430
懑 10431
懒 10432
懔 10433
懞 10434
懦 10435
懵 10436
懶 10437
懿 10438
戆 10439
戈 10440
戊 10441
戋 10442
戌 10443
戍 10444
戎 10445
戏 10446
成 10447
我 10448
戒 10449
戓 10450
戕 10451
或 10452
戗 10453
战 10454
戚 10455
戛 10456
戝 10457
戟 10458
戡 10459
戢 10460
戥 10461
截 10462
戬 10463
戮 10464
戳 10465
戴 10466
户 10467
戽 10468
戾 10469
房 10470
所 10471
扁 10472
扃 10473
扇 10474
扈 10475
扉 10476
手 10477
才 10478
扎 10479
扑 10480
扒 10481
打 10482
扔 10483
托 10484
扙 10485
扛 10486
扞 10487
扠 10488
扣 10489
扥 10490
扦 10491
执 10492
扩 10493
扪 10494
扫 10495
扬 10496
扭 10497
扮 10498
扯 10499
扰 10500
扳 10501
扶 10502
批 10503
扼 10504
扽 10505
找 10506
承 10507
技 10508
抄 10509
抅 10510
抉 10511
把 10512
抑 10513
抒 10514
抓 10515
抔 10516
投 10517
抖 10518
抗 10519
折 10520
抚 10521
抛 10522
抜 10523
抟 10524
抠 10525
抡 10526
抢 10527
护 10528
报 10529
抨 10530
披 10531
抬 10532
抱 10533
抳 10534
抵 10535
抹 10536
抻 10537
押 10538
抽 10539
抿 10540
拂 10541
拃 10542
拄 10543
担 10544
拆 10545
拇 10546
拈 10547
拉 10548
拋 10549
拌 10550
拍 10551
拎 10552
拐 10553
拒 10554
拓 10555
拔 10556
拖 10557
拗 10558
拘 10559
拙 10560
拚 10561
招 10562
拜 10563
拝 10564
拟 10565
拢 10566
拣 10567
拥 10568
拦 10569
拧 10570
拨 10571
择 10572
拫 10573
括 10574
拭 10575
拮 10576
拯 10577
拰 10578
拱 10579
拳 10580
拴 10581
拶 10582
拷 10583
拼 10584
拽 10585
拾 10586
拿 10587
持 10588
挂 10589
指 10590
挈 10591
按 10592
挌 10593
挎 10594
挑 10595
挒 10596
挖 10597
挚 10598
挛 10599
挝 10600
挞 10601
挟 10602
挠 10603
挡 10604
挢 10605
挣 10606
挤 10607
挥 10608
挨 10609
挪 10610
挫 10611
振 10612
挱 10613
挲 10614
挹 10615
挺 10616
挻 10617
挽 10618
捂 10619
捅 10620
捆 10621
捈 10622
捉 10623
捋 10624
捌 10625
捍 10626
捎 10627
捏 10628
捐 10629
捕 10630
捘 10631
捙 10632
捜 10633
捞 10634
损 10635
捡 10636
换 10637
捣 10638
捥 10639
捧 10640
捩 10641
捭 10642
据 10643
捯 10644
捱 10645
捶 10646
捷 10647
捺 10648
捻 10649
掀 10650
掂 10651
掃 10652
掇 10653
授 10654
掉 10655
掊 10656
掌 10657
掏 10658
掐 10659
排 10660
掕 10661
掖 10662
掘 10663
掠 10664
採 10665
探 10666
掣 10667
接 10668
控 10669
推 10670
掩 10671
措 10672
掫 10673
掬 10674
掭 10675
掮 10676
掰 10677
掳 10678
掴 10679
掷 10680
掸 10681
掺 10682
掻 10683
掼 10684
掾 10685
掿 10686
揄 10687
揆 10688
揉 10689
揍 10690
揎 10691
描 10692
提 10693
插 10694
揖 10695
揠 10696
握 10697
揣 10698
揦 10699
揩 10700
揪 10701
揭 10702
援 10703
揶 10704
揸 10705
揺 10706
揻 10707
揽 10708
揾 10709
揿 10710
搀 10711
搁 10712
搂 10713
搅 10714
搋 10715
損 10716
搏 10717
搐 10718
搓 10719
搔 10720
搙 10721
搛 10722
搜 10723
搝 10724
搞 10725
搠 10726
搡 10727
搥 10728
搦 10729
搧 10730
搪 10731
搬 10732
搭 10733
搴 10734
搵 10735
携 10736
搽 10737
摁 10738
摃 10739
摄 10740
摆 10741
摇 10742
摈 10743
摊 10744
摐 10745
摒 10746
摔 10747
摘 10748
摞 10749
摧 10750
摩 10751
摭 10752
摰 10753
摸 10754
摹 10755
摺 10756
摽 10757
撂 10758
撄 10759
撅 10760
撇 10761
撍 10762
撑 10763
撒 10764
撕 10765
撘 10766
撙 10767
撞 10768
撤 10769
撩 10770
撬 10771
播 10772
撮 10773
撰 10774
撵 10775
撷 10776
撸 10777
撺 10778
撼 10779
擀 10780
擂 10781
擅 10782
操 10783
擎 10784
擐 10785
擒 10786
擓 10787
擔 10788
擗 10789
擘 10790
擞 10791
擢 10792
擤 10793
擦 10794
攀 10795
攆 10796
攉 10797
攒 10798
攘 10799
攥 10800
攫 10801
攮 10802
支 10803
攰 10804
收 10805
攸 10806
改 10807
攻 10808
放 10809
政 10810
故 10811
效 10812
敊 10813
敌 10814
敏 10815
救 10816
敕 10817
敖 10818
敗 10819
教 10820
敛 10821
敝 10822
敞 10823
敢 10824
散 10825
敦 10826
敨 10827
敫 10828
敬 10829
数 10830
敲 10831
整 10832
敷 10833
文 10834
斋 10835
斌 10836
斎 10837
斐 10838
斑 10839
斓 10840
斗 10841
料 10842
斛 10843
斜 10844
斝 10845
斟 10846
斡 10847
斤 10848
斥 10849
斧 10850
斩 10851
斫 10852
断 10853
斯 10854
新 10855
斳 10856
方 10857
於 10858
施 10859
旁 10860
旃 10861
旅 10862
旆 10863
旋 10864
旌 10865
旎 10866
族 10867
旒 10868
旖 10869
旗 10870
无 10871
既 10872
旣 10873
日 10874
旦 10875
旧 10876
旨 10877
早 10878
旬 10879
旭 10880
旮 10881
旯 10882
旰 10883
旱 10884
旳 10885
时 10886
旷 10887
旸 10888
旺 10889
旻 10890
昀 10891
昂 10892
昃 10893
昆 10894
昇 10895
昉 10896
昊 10897
昌 10898
明 10899
昏 10900
易 10901
昔 10902
昕 10903
昙 10904
昝 10905
星 10906
映 10907
昤 10908
春 10909
昧 10910
昨 10911
昪 10912
昫 10913
昭 10914
是 10915
昰 10916
昱 10917
昳 10918
昴 10919
昵 10920
昶 10921
昺 10922
昻 10923
昼 10924
昽 10925
显 10926
晁 10927
時 10928
晃 10929
晅 10930
晇 10931
晋 10932
晌 10933
晏 10934
晒 10935
晓 10936
晔 10937
晕 10938
晖 10939
晗 10940
晚 10941
晞 10942
晟 10943
晢 10944
晤 10945
晦 10946
晧 10947
晨 10948
晩 10949
普 10950
景 10951
晰 10952
晴 10953
晶 10954
晷 10955
智 10956
晾 10957
暂 10958
暄 10959
暇 10960
暌 10961
暍 10962
暑 10963
暖 10964
暗 10965
暝 10966
暧 10967
暨 10968
暮 10969
暴 10970
暹 10971
暻 10972
暾 10973
曈 10974
曌 10975
曙 10976
曛 10977
曜 10978
曝 10979
曦 10980
曩 10981
曰 10982
曲 10983
曳 10984
更 10985
曵 10986
曷 10987
曹 10988
曺 10989
曼 10990
曽 10991
曾 10992
替 10993
最 10994
會 10995
月 10996
有 10997
朊 10998
朋 10999
服 11000
朐 11001
朓 11002
朔 11003
朕 11004
朗 11005
望 11006
朝 11007
期 11008
朦 11009
木 11010
未 11011
末 11012
本 11013
札 11014
术 11015
朱 11016
朴 11017
朵 11018
机 11019
朽 11020
朿 11021
杀 11022
杂 11023
权 11024
杆 11025
杈 11026
杉 11027
杌 11028
李 11029
杏 11030
材 11031
村 11032
杓 11033
杖 11034
杜 11035
杞 11036
束 11037
杠 11038
条 11039
来 11040
杨 11041
杩 11042
杪 11043
杭 11044
杮 11045
杯 11046
杰 11047
杲 11048
杳 11049
杵 11050
杷 11051
杼 11052
松 11053
板 11054
极 11055
构 11056
枇 11057
枉 11058
枊 11059
枋 11060
析 11061
枔 11062
枕 11063
林 11064
枘 11065
枚 11066
果 11067
枝 11068
枞 11069
枢 11070
枣 11071
枥 11072
枧 11073
枪 11074
枫 11075
枬 11076
枭 11077
枯 11078
枰 11079
枱 11080
枳 11081
架 11082
枷 11083
枸 11084
柁 11085
柃 11086
柄 11087
柊 11088
柏 11089
某 11090
柑 11091
柒 11092
染 11093
柔 11094
柘 11095
柙 11096
柚 11097
柜 11098
柝 11099
柞 11100
柠 11101
柢 11102
查 11103
柩 11104
柪 11105
柬 11106
柯 11107
柰 11108
柱 11109
柲 11110
柳 11111
柴 11112
柸 11113
柺 11114
査 11115
柽 11116
柿 11117
栀 11118
栁 11119
栅 11120
栆 11121
标 11122
栈 11123
栉 11124
栊 11125
栋 11126
栌 11127
栎 11128
栏 11129
树 11130
栓 11131
栖 11132
栗 11133
栝 11134
栟 11135
校 11136
栢 11137
栤 11138
栩 11139
株 11140
栫 11141
栰 11142
栲 11143
栳 11144
样 11145
核 11146
根 11147
栻 11148
格 11149
栽 11150
栾 11151
桀 11152
桁 11153
桂 11154
桃 11155
桄 11156
桅 11157
框 11158
案 11159
桉 11160
桌 11161
桎 11162
桐 11163
桑 11164
桓 11165
桔 11166
桕 11167
桖 11168
桜 11169
桠 11170
桡 11171
桢 11172
档 11173
桤 11174
桥 11175
桦 11176
桧 11177
桨 11178
桩 11179
桫 11180
桲 11181
桴 11182
桶 11183
桷 11184
桼 11185
桿 11186
梁 11187
梂 11188
梃 11189
梅 11190
梆 11191
梍 11192
梏 11193
梓 11194
梗 11195
梛 11196
條 11197
梢 11198
梦 11199
梧 11200
梨 11201
梭 11202
梯 11203
械 11204
梳 11205
梵 11206
梶 11207
梼 11208
检 11209
棁 11210
棂 11211
棉 11212
棋 11213
棍 11214
棑 11215
棒 11216
棕 11217
棘 11218
棙 11219
棚 11220
棠 11221
棣 11222
棪 11223
森 11224
棰 11225
棱 11226
棵 11227
棹 11228
棺 11229
棻 11230
棽 11231
椁 11232
椄 11233
椅 11234
椋 11235
植 11236
椎 11237
椐 11238
椒 11239
椟 11240
椤 11241
椪 11242
椭 11243
椰 11244
椴 11245
椹 11246
椽 11247
椿 11248
楂 11249
楔 11250
楗 11251
楚 11252
楛 11253
楝 11254
楞 11255
楠 11256
楣 11257
楦 11258
楫 11259
楮 11260
楯 11261
楴 11262
楷 11263
楸 11264
楹 11265
楺 11266
楼 11267
楽 11268
榀 11269
概 11270
榄 11271
榅 11272
榆 11273
榇 11274
榈 11275
榉 11276
榔 11277
榕 11278
榘 11279
榛 11280
榜 11281
榟 11282
榧 11283
榨 11284
榫 11285
榭 11286
榱 11287
榴 11288
榷 11289
榻 11290
槁 11291
槃 11292
槊 11293
槌 11294
槎 11295
槐 11296
槔 11297
様 11298
槛 11299
槟 11300
槡 11301
槣 11302
槭 11303
槲 11304
槽 11305
槿 11306
樂 11307
樉 11308
樊 11309
樑 11310
樗 11311
樘 11312
樟 11313
模 11314
樣 11315
樨 11316
横 11317
樯 11318
樱 11319
樵 11320
樶 11321
樽 11322
樾 11323
橄 11324
橇 11325
橐 11326
橘 11327
橙 11328
橛 11329
機 11330
橡 11331
橥 11332
橦 11333
橧 11334
橫 11335
橱 11336
橹 11337
橼 11338
檀 11339
檄 11340
檎 11341
檐 11342
檗 11343
檩 11344
檫 11345
檬 11346
檮 11347
檺 11348
櫈 11349
權 11350
欠 11351
次 11352
欢 11353
欣 11354
欤 11355
欧 11356
欬 11357
欲 11358
欸 11359
欹 11360
欺 11361
欻 11362
款 11363
歃 11364
歆 11365
歇 11366
歉 11367
歌 11368
歐 11369
歘 11370
歙 11371
歡 11372
止 11373
正 11374
此 11375
步 11376
武 11377
歧 11378
歨 11379
歩 11380
歪 11381
歹 11382
死 11383
歼 11384
殁 11385
殂 11386
殃 11387
殄 11388
殆 11389
殇 11390
殉 11391
殊 11392
残 11393
殍 11394
殒 11395
殓 11396
殖 11397
殚 11398
殡 11399
殪 11400
殭 11401
殳 11402
殴 11403
段 11404
殷 11405
殺 11406
殿 11407
毁 11408
毂 11409
毅 11410
毋 11411
母 11412
毎 11413
每 11414
毐 11415
毒 11416
毓 11417
比 11418
毕 11419
毖 11420
毗 11421
毙 11422
毛 11423
毡 11424
毫 11425
毬 11426
毯 11427
毳 11428
毵 11429
毹 11430
毽 11431
氁 11432
氅 11433
氆 11434
氇 11435
氏 11436
氐 11437
民 11438
氓 11439
气 11440
氕 11441
氖 11442
氘 11443
氙 11444
氚 11445
氛 11446
氟 11447
氡 11448
氢 11449
氣 11450
氤 11451
氦 11452
氧 11453
氨 11454
氩 11455
氪 11456
氮 11457
氯 11458
氰 11459
氲 11460
水 11461
永 11462
氹 11463
氺 11464
氽 11465
氾 11466
氿 11467
汀 11468
汁 11469
求 11470
汃 11471
汆 11472
汇 11473
汉 11474
汊 11475
汌 11476
汎 11477
汐 11478
汔 11479
汕 11480
汖 11481
汗 11482
汛 11483
汜 11484
汝 11485
汞 11486
江 11487
池 11488
污 11489
汤 11490
汧 11491
汨 11492
汩 11493
汪 11494
汭 11495
汰 11496
汲 11497
汴 11498
汶 11499
汹 11500
決 11501
汽 11502
汾 11503
沁 11504
沂 11505
沃 11506
沄 11507
沅 11508
沆 11509
沈 11510
沉 11511
沌 11512
沏 11513
沐 11514
沒 11515
沓 11516
沔 11517
沖 11518
沘 11519
沙 11520
沚 11521
沛 11522
沟 11523
没 11524
沢 11525
沣 11526
沤 11527
沥 11528
沦 11529
沧 11530
沨 11531
沩 11532
沪 11533
沫 11534
沭 11535
沮 11536
沱 11537
河 11538
沸 11539
油 11540
治 11541
沼 11542
沽 11543
沾 11544
沿 11545
況 11546
泃 11547
泄 11548
泅 11549
泉 11550
泊 11551
泌 11552
泐 11553
泑 11554
泓 11555
泔 11556
法 11557
泖 11558
泗 11559
泘 11560
泚 11561
泛 11562
泞 11563
泟 11564
泠 11565
泡 11566
波 11567
泣 11568
泥 11569
注 11570
泪 11571
泫 11572
泮 11573
泯 11574
泰 11575
泱 11576
泳 11577
泵 11578
泷 11579
泸 11580
泺 11581
泻 11582
泼 11583
泽 11584
泾 11585
洁 11586
洄 11587
洅 11588
洇 11589
洈 11590
洋 11591
洌 11592
洎 11593
洐 11594
洑 11595
洒 11596
洗 11597
洘 11598
洙 11599
洛 11600
洞 11601
洣 11602
洤 11603
津 11604
洧 11605
洨 11606
洪 11607
洮 11608
洱 11609
洲 11610
洳 11611
洵 11612
洸 11613
洹 11614
洺 11615
活 11616
洼 11617
洽 11618
派 11619
流 11620
浃 11621
浄 11622
浅 11623
浆 11624
浇 11625
浈 11626
浉 11627
浊 11628
测 11629
浍 11630
济 11631
浏 11632
浐 11633
浑 11634
浒 11635
浓 11636
浔 11637
浗 11638
浙 11639
浚 11640
浛 11641
浜 11642
浞 11643
浠 11644
浡 11645
浣 11646
浥 11647
浦 11648
浩 11649
浪 11650
浬 11651
浭 11652
浮 11653
浯 11654
浴 11655
海 11656
浸 11657
浼 11658
涂 11659
涅 11660
消 11661
涉 11662
涌 11663
涎 11664
涐 11665
涑 11666
涓 11667
涔 11668
涕 11669
涘 11670
涚 11671
涛 11672
涝 11673
涞 11674
涟 11675
涠 11676
涡 11677
涣 11678
涤 11679
润 11680
涧 11681
涨 11682
涩 11683
涪 11684
涫 11685
涭 11686
涮 11687
涯 11688
液 11689
涴 11690
涵 11691
涸 11692
涼 11693
涿 11694
淀 11695
淄 11696
淅 11697
淆 11698
淇 11699
淋 11700
淌 11701
淏 11702
淑 11703
淖 11704
淘 11705
淙 11706
淝 11707
淞 11708
淠 11709
淡 11710
淣 11711
淤 11712
淦 11713
淩 11714
淫 11715
淬 11716
淮 11717
淯 11718
深 11719
淳 11720
淴 11721
混 11722
淸 11723
淹 11724
添 11725
淼 11726
渀 11727
渃 11728
清 11729
渉 11730
渊 11731
渌 11732
渍 11733
渎 11734
渐 11735
渑 11736
渔 11737
渗 11738
渚 11739
減 11740
渝 11741
渟 11742
渠 11743
渡 11744
渣 11745
渤 11746
渥 11747
温 11748
渫 11749
測 11750
渭 11751
港 11752
渲 11753
渴 11754
游 11755
渺 11756
渼 11757
湃 11758
湄 11759
湉 11760
湍 11761
湎 11762
湑 11763
湓 11764
湔 11765
湖 11766
湘 11767
湛 11768
湜 11769
湟 11770
湧 11771
湫 11772
湮 11773
湶 11774
湾 11775
湿 11776
溃 11777
溅 11778
溆 11779
溇 11780
溉 11781
溏 11782
源 11783
溕 11784
溘 11785
溙 11786
溜 11787
溞 11788
溟 11789
溢 11790
溥 11791
溦 11792
溧 11793
溪 11794
溯 11795
溱 11796
溲 11797
溴 11798
溶 11799
溺 11800
溻 11801
溽 11802
滁 11803
滂 11804
滃 11805
滄 11806
滆 11807
滇 11808
滉 11809
滋 11810
滏 11811
滑 11812
滓 11813
滔 11814
滕 11815
滖 11816
滗 11817
滘 11818
滚 11819
滞 11820
滟 11821
滠 11822
满 11823
滢 11824
滤 11825
滥 11826
滦 11827
滨 11828
滩 11829
滮 11830
滴 11831
滹 11832
漂 11833
漄 11834
漆 11835
漈 11836
漉 11837
漏 11838
漑 11839
漓 11840
演 11841
漕 11842
漖 11843
漠 11844
漩 11845
漪 11846
漫 11847
漭 11848
漯 11849
漱 11850
漳 11851
漴 11852
漶 11853
漷 11854
漾 11855
潆 11856
潇 11857
潋 11858
潍 11859
潘 11860
潜 11861
潞 11862
潟 11863
潢 11864
潤 11865
潥 11866
潦 11867
潨 11868
潩 11869
潭 11870
潮 11871
潲 11872
潴 11873
潵 11874
潸 11875
潺 11876
潼 11877
澂 11878
澄 11879
澈 11880
澉 11881
澋 11882
澌 11883
澍 11884
澎 11885
澔 11886
澛 11887
澜 11888
澡 11889
澥 11890
澧 11891
澪 11892
澫 11893
澳 11894
澴 11895
澶 11896
澹 11897
激 11898
濂 11899
濉 11900
濑 11901
濒 11902
濛 11903
濞 11904
濟 11905
濠 11906
濡 11907
濮 11908
濯 11909
瀍 11910
瀑 11911
瀔 11912
瀚 11913
瀛 11914
瀞 11915
瀣 11916
瀤 11917
瀮 11918
瀵 11919
瀼 11920
灈 11921
灌 11922
灏 11923
灘 11924
灜 11925
灞 11926
灣 11927
火 11928
灬 11929
灭 11930
灯 11931
灰 11932
灵 11933
灶 11934
灸 11935
灼 11936
灾 11937
灿 11938
炀 11939
炅 11940
炆 11941
炉 11942
炊 11943
炎 11944
炒 11945
炔 11946
炕 11947
炖 11948
炘 11949
炙 11950
炜 11951
炝 11952
炤 11953
炫 11954
炬 11955
炭 11956
炮 11957
炯 11958
炳 11959
炷 11960
炸 11961
点 11962
為 11963
炻 11964
炼 11965
炽 11966
烀 11967
烁 11968
烂 11969
烃 11970
烈 11971
烊 11972
烔 11973
烘 11974
烙 11975
烛 11976
烜 11977
烝 11978
烟 11979
烤 11980
烦 11981
烧 11982
烨 11983
烩 11984
烫 11985
烬 11986
热 11987
烯 11988
烷 11989
烹 11990
烽 11991
焉 11992
焊 11993
焐 11994
焓 11995
焕 11996
焖 11997
焗 11998
焘 11999
焙 12000
焚 12001
焜 12002
無 12003
焦 12004
焯 12005
焰 12006
焱 12007
焴 12008
然 12009
焼 12010
煅 12011
煊 12012
煌 12013
煎 12014
煓 12015
煕 12016
煗 12017
煜 12018
煞 12019
煤 12020
煦 12021
照 12022
煨 12023
煮 12024
煲 12025
煳 12026
煸 12027
煺 12028
煽 12029
熀 12030
熄 12031
熇 12032
熊 12033
熏 12034
熔 12035
熘 12036
熙 12037
熟 12038
熠 12039
熤 12040
熥 12041
熨 12042
熬 12043
熰 12044
熳 12045
熵 12046
熹 12047
熺 12048
燃 12049
燊 12050
燎 12051
燐 12052
燔 12053
燕 12054
燚 12055
燥 12056
燧 12057
燮 12058
燹 12059
燿 12060
爆 12061
爝 12062
爨 12063
爪 12064
爬 12065
爰 12066
爱 12067
爵 12068
父 12069
爷 12070
爸 12071
爹 12072
爻 12073
爽 12074
牀 12075
片 12076
版 12077
牌 12078
牍 12079
牒 12080
牖 12081
牙 12082
牛 12083
牝 12084
牟 12085
牠 12086
牡 12087
牢 12088
牤 12089
牦 12090
牧 12091
物 12092
牯 12093
牰 12094
牲 12095
牵 12096
特 12097
牺 12098
牾 12099
犀 12100
犁 12101
犄 12102
犇 12103
犊 12104
犍 12105
犒 12106
犟 12107
犬 12108
犭 12109
犯 12110
犰 12111
犲 12112
犴 12113
状 12114
犷 12115
犸 12116
犹 12117
犺 12118
犽 12119
狂 12120
狃 12121
狄 12122
狈 12123
狍 12124
狎 12125
狐 12126
狒 12127
狗 12128
狙 12129
狞 12130
狠 12131
狡 12132
狨 12133
狩 12134
独 12135
狭 12136
狮 12137
狰 12138
狱 12139
狲 12140
狳 12141
狴 12142
狷 12143
狸 12144
狺 12145
狻 12146
狼 12147
猁 12148
猄 12149
猇 12150
猊 12151
猎 12152
猕 12153
猖 12154
猗 12155
猛 12156
猜 12157
猝 12158
猞 12159
猡 12160
猢 12161
猥 12162
猩 12163
猪 12164
猫 12165
猬 12166
献 12167
猱 12168
猴 12169
猷 12170
猹 12171
猾 12172
猿 12173
獐 12174
獒 12175
獗 12176
獠 12177
獦 12178
獬 12179
獭 12180
獴 12181
獾 12182
玄 12183
率 12184
玉 12185
王 12186
玍 12187
玎 12188
玑 12189
玒 12190
玓 12191
玕 12192
玖 12193
玗 12194
玘 12195
玙 12196
玛 12197
玟 12198
玠 12199
玢 12200
玥 12201
玩 12202
玫 12203
玮 12204
环 12205
现 12206
玲 12207
玳 12208
玷 12209
玹 12210
玺 12211
玻 12212
玼 12213
珀 12214
珂 12215
珄 12216
珅 12217
珇 12218
珈 12219
珉 12220
珊 12221
珍 12222
珎 12223
珏 12224
珐 12225
珑 12226
珒 12227
珙 12228
珜 12229
珞 12230
珠 12231
珣 12232
珥 12233
珦 12234
珧 12235
珩 12236
珪 12237
班 12238
珮 12239
珰 12240
珲 12241
珶 12242
珺 12243
珽 12244
現 12245
琁 12246
球 12247
琅 12248
理 12249
琇 12250
琉 12251
琊 12252
琍 12253
琎 12254
琏 12255
琐 12256
琓 12257
琔 12258
琚 12259
琛 12260
琢 12261
琣 12262
琤 12263
琥 12264
琦 12265
琨 12266
琪 12267
琬 12268
琮 12269
琯 12270
琰 12271
琲 12272
琳 12273
琴 12274
琵 12275
琶 12276
琼 12277
瑀 12278
瑁 12279
瑄 12280
瑅 12281
瑈 12282
瑔 12283
瑕 12284
瑗 12285
瑙 12286
瑚 12287
瑛 12288
瑜 12289
瑞 12290
瑟 12291
瑠 12292
瑢 12293
瑨 12294
瑭 12295
瑰 12296
瑶 12297
瑷 12298
瑾 12299
璀 12300
璁 12301
璃 12302
璆 12303
璇 12304
璊 12305
璋 12306
璎 12307
璐 12308
璘 12309
璜 12310
璞 12311
璟 12312
璠 12313
璧 12314
璨 12315
璩 12316
璮 12317
璱 12318
璿 12319
瓒 12320
瓜 12321
瓟 12322
瓠 12323
瓢 12324
瓣 12325
瓤 12326
瓦 12327
瓫 12328
瓮 12329
瓯 12330
瓴 12331
瓶 12332
瓷 12333
瓿 12334
甁 12335
甄 12336
甍 12337
甑 12338
甕 12339
甘 12340
甙 12341
甚 12342
甜 12343
生 12344
産 12345
甥 12346
甦 12347
用 12348
甩 12349
甪 12350
甫 12351
甬 12352
甭 12353
甯 12354
田 12355
由 12356
甲 12357
申 12358
电 12359
男 12360
甸 12361
町 12362
画 12363
甽 12364
甾 12365
畅 12366
畇 12367
畈 12368
畊 12369
畋 12370
界 12371
畎 12372
畏 12373
畑 12374
畔 12375
留 12376
畚 12377
畜 12378
畟 12379
畠 12380
略 12381
畦 12382
番 12383
畲 12384
畴 12385
當 12386
畸 12387
畹 12388
畿 12389
疃 12390
疆 12391
疋 12392
疍 12393
疏 12394
疑 12395
疔 12396
疖 12397
疗 12398
疙 12399
疚 12400
疝 12401
疟 12402
疠 12403
疡 12404
疣 12405
疤 12406
疥 12407
疪 12408
疫 12409
疮 12410
疯 12411
疰 12412
疱 12413
疲 12414
疳 12415
疴 12416
疵 12417
疸 12418
疹 12419
疼 12420
疽 12421
疾 12422
痂 12423
痄 12424
病 12425
症 12426
痈 12427
痉 12428
痊 12429
痍 12430
痒 12431
痔 12432
痕 12433
痖 12434
痘 12435
痛 12436
痞 12437
痢 12438
痣 12439
痤 12440
痦 12441
痧 12442
痨 12443
痩 12444
痪 12445
痫 12446
痰 12447
痱 12448
痳 12449
痴 12450
痷 12451
痹 12452
痼 12453
痿 12454
瘀 12455
瘁 12456
瘄 12457
瘆 12458
瘊 12459
瘌 12460
瘐 12461
瘘 12462
瘙 12463
瘟 12464
瘠 12465
瘢 12466
瘤 12467
瘦 12468
瘩 12469
瘪 12470
瘫 12471
瘮 12472
瘰 12473
瘳 12474
瘴 12475
瘸 12476
瘾 12477
瘿 12478
癀 12479
療 12480
癃 12481
癌 12482
癍 12483
癒 12484
癔 12485
癖 12486
癙 12487
癜 12488
癞 12489
癣 12490
癦 12491
癫 12492
癯 12493
癲 12494
癸 12495
登 12496
發 12497
白 12498
百 12499
皁 12500
皂 12501
的 12502
皆 12503
皇 12504
皈 12505
皋 12506
皎 12507
皑 12508
皓 12509
皖 12510
皙 12511
皞 12512
皮 12513
皱 12514
皲 12515
皴 12516
皿 12517
盁 12518
盂 12519
盅 12520
盆 12521
盈 12522
盉 12523
益 12524
盍 12525
盎 12526
盏 12527
盐 12528
监 12529
盒 12530
盔 12531
盖 12532
盗 12533
盘 12534
盛 12535
盟 12536
盥 12537
目 12538
盯 12539
盱 12540
盲 12541
直 12542
相 12543
盹 12544
盺 12545
盼 12546
盾 12547
眀 12548
省 12549
眇 12550
眈 12551
眉 12552
看 12553
眕 12554
眙 12555
眜 12556
真 12557
眠 12558
眦 12559
眨 12560
眩 12561
眬 12562
眭 12563
眯 12564
眲 12565
眳 12566
眶 12567
眷 12568
眸 12569
眹 12570
眺 12571
眼 12572
着 12573
睁 12574
睃 12575
睇 12576
睌 12577
睐 12578
睑 12579
睒 12580
睚 12581
睛 12582
睟 12583
睡 12584
睢 12585
督 12586
睥 12587
睦 12588
睨 12589
睫 12590
睬 12591
睭 12592
睯 12593
睹 12594
睺 12595
睽 12596
睾 12597
睿 12598
瞀 12599
瞄 12600
瞅 12601
瞌 12602
瞎 12603
瞑 12604
瞒 12605
瞓 12606
瞜 12607
瞟 12608
瞠 12609
瞥 12610
瞧 12611
瞩 12612
瞪 12613
瞬 12614
瞭 12615
瞰 12616
瞳 12617
瞵 12618
瞻 12619
瞽 12620
瞾 12621
瞿 12622
矇 12623
矍 12624
矒 12625
矗 12626
矛 12627
矜 12628
矢 12629
矣 12630
知 12631
矩 12632
矫 12633
矬 12634
短 12635
矮 12636
矱 12637
石 12638
矶 12639
矸 12640
矽 12641
矾 12642
矿 12643
砀 12644
码 12645
砂 12646
砌 12647
砍 12648
砑 12649
砒 12650
研 12651
砖 12652
砗 12653
砚 12654
砜 12655
砝 12656
砟 12657
砢 12658
砣 12659
砥 12660
砦 12661
砧 12662
砩 12663
砬 12664
砭 12665
砮 12666
砰 12667
砱 12668
砲 12669
破 12670
砷 12671
砸 12672
砺 12673
砻 12674
砼 12675
砾 12676
础 12677
硁 12678
硅 12679
硇 12680
硌 12681
硎 12682
硐 12683
硑 12684
硒 12685
硕 12686
硖 12687
硗 12688
硙 12689
硚 12690
硝 12691
硞 12692
硪 12693
硫 12694
硬 12695
硭 12696
确 12697
硷 12698
硼 12699
硿 12700
碁 12701
碇 12702
碉 12703
碌 12704
碍 12705
碎 12706
碏 12707
碑 12708
碓 12709
碗 12710
碘 12711
碚 12712
碛 12713
碜 12714
碟 12715
碣 12716
碥 12717
碧 12718
碰 12719
碱 12720
碲 12721
碳 12722
碴 12723
碶 12724
碹 12725
碾 12726
磁 12727
磅 12728
磉 12729
磊 12730
磋 12731
磐 12732
磕 12733
磙 12734
磜 12735
磡 12736
磨 12737
磬 12738
磲 12739
磴 12740
磷 12741
磺 12742
磻 12743
礁 12744
礅 12745
礌 12746
礓 12747
礞 12748
礤 12749
礴 12750
示 12751
礻 12752
礼 12753
礽 12754
社 12755
祀 12756
祁 12757
祂 12758
祇 12759
祈 12760
祉 12761
祎 12762
祐 12763
祔 12764
祖 12765
祗 12766
祘 12767
祚 12768
祛 12769
祜 12770
祝 12771
神 12772
祟 12773
祠 12774
祡 12775
祢 12776
祥 12777
祧 12778
票 12779
祭 12780
祯 12781
祰 12782
祲 12783
祷 12784
祸 12785
祺 12786
祼 12787
祾 12788
禀 12789
禁 12790
禄 12791
禅 12792
禇 12793
禊 12794
福 12795
禚 12796
禛 12797
禟 12798
禤 12799
禧 12800
禩 12801
禳 12802
禹 12803
禺 12804
离 12805
禽 12806
禾 12807
秀 12808
私 12809
秃 12810
秆 12811
秉 12812
秋 12813
种 12814
秏 12815
科 12816
秒 12817
秕 12818
秘 12819
租 12820
秣 12821
秤 12822
秦 12823
秧 12824
秩 12825
秫 12826
秭 12827
积 12828
称 12829
秸 12830
移 12831
秽 12832
稀 12833
稂 12834
稅 12835
稊 12836
程 12837
稍 12838
税 12839
稔 12840
稗 12841
稚 12842
稞 12843
稠 12844
稣 12845
種 12846
稳 12847
稷 12848
稹 12849
稻 12850
稼 12851
稽 12852
稿 12853
穂 12854
穆 12855
穏 12856
穑 12857
穗 12858
穰 12859
穴 12860
究 12861
穷 12862
穹 12863
空 12864
穿 12865
窀 12866
突 12867
窃 12868
窄 12869
窈 12870
窊 12871
窍 12872
窎 12873
窑 12874
窒 12875
窓 12876
窕 12877
窖 12878
窗 12879
窘 12880
窜 12881
窝 12882
窟 12883
窠 12884
窣 12885
窥 12886
窦 12887
窨 12888
窩 12889
窸 12890
窿 12891
竂 12892
立 12893
竖 12894
站 12895
竜 12896
竞 12897
竟 12898
章 12899
竣 12900
童 12901
竦 12902
竭 12903
端 12904
竲 12905
竹 12906
竺 12907
竼 12908
竽 12909
竿 12910
笃 12911
笄 12912
笆 12913
笇 12914
笈 12915
笊 12916
笋 12917
笏 12918
笑 12919
笓 12920
笔 12921
笕 12922
笙 12923
笛 12924
笞 12925
笠 12926
笣 12927
笤 12928
笥 12929
符 12930
笨 12931
笪 12932
笫 12933
第 12934
笮 12935
笱 12936
笳 12937
笸 12938
笹 12939
笺 12940
笼 12941
笾 12942
筀 12943
筅 12944
筇 12945
等 12946
筋 12947
筌 12948
筍 12949
筏 12950
筐 12951
筑 12952
筒 12953
答 12954
策 12955
筘 12956
筚 12957
筛 12958
筜 12959
筝 12960
筠 12961
筢 12962
筦 12963
筮 12964
筱 12965
筲 12966
筵 12967
筷 12968
筹 12969
筼 12970
签 12971
简 12972
箅 12973
箈 12974
箍 12975
箎 12976
箐 12977
箓 12978
箔 12979
箕 12980
算 12981
箜 12982
箝 12983
管 12984
箤 12985
箥 12986
箦 12987
箧 12988
箨 12989
箩 12990
箪 12991
箫 12992
箬 12993
箭 12994
箱 12995
箴 12996
箸 12997
節 12998
篁 12999
篆 13000
篇 13001
篌 13002
篑 13003
篓 13004
篙 13005
篝 13006
篡 13007
篦 13008
篪 13009
篮 13010
篱 13011
篷 13012
篼 13013
篾 13014
簃 13015
簇 13016
簋 13017
簌 13018
簏 13019
簒 13020
簕 13021
簖 13022
簟 13023
簧 13024
簪 13025
簰 13026
簶 13027
簸 13028
簿 13029
籀 13030
籁 13031
籍 13032
籫 13033
米 13034
籴 13035
籹 13036
类 13037
籼 13038
籽 13039
籿 13040
粄 13041
粉 13042
粏 13043
粑 13044
粒 13045
粕 13046
粗 13047
粘 13048
粜 13049
粝 13050
粞 13051
粟 13052
粢 13053
粤 13054
粥 13055
粪 13056
粮 13057
粯 13058
粱 13059
粲 13060
粳 13061
粹 13062
粼 13063
粽 13064
精 13065
粿 13066
糁 13067
糅 13068
糇 13069
糊 13070
糌 13071
糍 13072
糕 13073
糖 13074
糗 13075
糙 13076
糜 13077
糟 13078
糠 13079
糥 13080
糨 13081
糯 13082
糵 13083
糸 13084
系 13085
紅 13086
紊 13087
納 13088
紑 13089
紗 13090
紙 13091
級 13092
素 13093
紡 13094
索 13095
紧 13096
紫 13097
紮 13098
累 13099
紹 13100
結 13101
絕 13102
絜 13103
絣 13104
給 13105
絮 13106
絶 13107
綁 13108
經 13109
綦 13110
維 13111
綮 13112
綽 13113
緊 13114
緑 13115
緣 13116
緾 13117
縁 13118
縢 13119
縻 13120
績 13121
繁 13122
繇 13123
纁 13124
纂 13125
纛 13126
纠 13127
纡 13128
红 13129
纣 13130
纤 13131
纥 13132
约 13133
级 13134
纨 13135
纪 13136
纫 13137
纬 13138
纭 13139
纮 13140
纯 13141
纰 13142
纱 13143
纲 13144
纳 13145
纵 13146
纶 13147
纷 13148
纸 13149
纹 13150
纺 13151
纽 13152
纾 13153
线 13154
绀 13155
绁 13156
练 13157
组 13158
绅 13159
细 13160
织 13161
终 13162
绉 13163
绊 13164
绋 13165
绌 13166
绍 13167
绎 13168
经 13169
绐 13170
绑 13171
绒 13172
结 13173
绔 13174
绕 13175
绗 13176
绘 13177
给 13178
绚 13179
绛 13180
络 13181
绝 13182
绞 13183
统 13184
绡 13185
绢 13186
绣 13187
绥 13188
绦 13189
继 13190
绨 13191
绩 13192
绪 13193
绫 13194
续 13195
绮 13196
绯 13197
绰 13198
绲 13199
绳 13200
维 13201
绵 13202
绶 13203
绷 13204
绸 13205
绺 13206
绻 13207
综 13208
绽 13209
绾 13210
绿 13211
缀 13212
缁 13213
缂 13214
缃 13215
缄 13216
缅 13217
缆 13218
缇 13219
缈 13220
缉 13221
缊 13222
缋 13223
缌 13224
缎 13225
缏 13226
缐 13227
缑 13228
缒 13229
缓 13230
缔 13231
缕 13232
编 13233
缗 13234
缘 13235
缙 13236
缚 13237
缛 13238
缜 13239
缝 13240
缞 13241
缟 13242
缠 13243
缡 13244
缢 13245
缤 13246
缥 13247
缦 13248
缧 13249
缨 13250
缩 13251
缪 13252
缫 13253
缬 13254
缭 13255
缮 13256
缯 13257
缰 13258
缱 13259
缲 13260
缳 13261
缴 13262
缵 13263
缶 13264
缷 13265
缸 13266
缺 13267
罂 13268
罃 13269
罄 13270
罅 13271
罍 13272
罐 13273
网 13274
罔 13275
罕 13276
罗 13277
罘 13278
罚 13279
罟 13280
罡 13281
罢 13282
罥 13283
罨 13284
罩 13285
罪 13286
罫 13287
置 13288
罱 13289
署 13290
罴 13291
罹 13292
罾 13293
羁 13294
羊 13295
羌 13296
美 13297
羑 13298
羔 13299
羚 13300
羝 13301
羞 13302
羟 13303
羡 13304
羣 13305
群 13306
羧 13307
羨 13308
羮 13309
羯 13310
羰 13311
羱 13312
羲 13313
羸 13314
羹 13315
羼 13316
羽 13317
羿 13318
翀 13319
翁 13320
翅 13321
翊 13322
翌 13323
翎 13324
翏 13325
習 13326
翔 13327
翕 13328
翘 13329
翟 13330
翠 13331
翡 13332
翦 13333
翩 13334
翮 13335
翰 13336
翱 13337
翳 13338
翸 13339
翻 13340
翼 13341
翾 13342
耀 13343
老 13344
考 13345
耄 13346
者 13347
耆 13348
耋 13349
而 13350
耍 13351
耐 13352
耒 13353
耔 13354
耕 13355
耖 13356
耗 13357
耘 13358
耙 13359
耜 13360
耦 13361
耧 13362
耨 13363
耩 13364
耪 13365
耳 13366
耵 13367
耶 13368
耷 13369
耸 13370
耻 13371
耽 13372
耿 13373
聂 13374
聃 13375
聆 13376
聊 13377
聋 13378
职 13379
聍 13380
聒 13381
联 13382
聘 13383
聚 13384
聛 13385
聣 13386
聨 13387
聩 13388
聪 13389
聴 13390
聶 13391
聿 13392
肃 13393
肄 13394
肆 13395
肇 13396
肉 13397
肋 13398
肌 13399
肏 13400
肓 13401
肖 13402
肘 13403
肚 13404
肛 13405
肝 13406
肟 13407
肠 13408
股 13409
肢 13410
肤 13411
肥 13412
肧 13413
肩 13414
肪 13415
肫 13416
肭 13417
肮 13418
肯 13419
肱 13420
育 13421
肴 13422
肺 13423
肼 13424
肽 13425
肾 13426
肿 13427
胀 13428
胁 13429
胂 13430
胃 13431
胄 13432
胆 13433
背 13434
胍 13435
胎 13436
胖 13437
胗 13438
胙 13439
胚 13440
胛 13441
胜 13442
胝 13443
胞 13444
胡 13445
胤 13446
胥 13447
胧 13448
胩 13449
胪 13450
胫 13451
胬 13452
胭 13453
胯 13454
胰 13455
胱 13456
胲 13457
胳 13458
胴 13459
胶 13460
胸 13461
胺 13462
胼 13463
能 13464
胿 13465
脁 13466
脂 13467
脆 13468
脉 13469
脊 13470
脍 13471
脏 13472
脐 13473
脑 13474
脒 13475
脓 13476
脔 13477
脖 13478
脘 13479
脚 13480
脞 13481
脣 13482
脬 13483
脮 13484
脯 13485
脱 13486
脲 13487
脳 13488
脸 13489
脾 13490
腆 13491
腇 13492
腈 13493
腊 13494
腋 13495
腌 13496
腐 13497
腑 13498
腓 13499
腔 13500
腕 13501
腘 13502
腚 13503
腠 13504
腥 13505
腧 13506
腩 13507
腭 13508
腮 13509
腰 13510
腱 13511
腴 13512
腹 13513
腺 13514
腻 13515
腼 13516
腾 13517
腿 13518
膀 13519
膈 13520
膊 13521
膏 13522
膑 13523
膖 13524
膘 13525
膙 13526
膛 13527
膜 13528
膝 13529
膦 13530
膨 13531
膫 13532
膳 13533
膺 13534
膻 13535
膽 13536
臀 13537
臁 13538
臂 13539
臃 13540
臆 13541
臉 13542
臊 13543
臣 13544
臧 13545
自 13546
臬 13547
臭 13548
至 13549
致 13550
臻 13551
臼 13552
臾 13553
舀 13554
舂 13555
舅 13556
舆 13557
舌 13558
舍 13559
舎 13560
舐 13561
舒 13562
舔 13563
舘 13564
舛 13565
舜 13566
舞 13567
舟 13568
舢 13569
舣 13570
舥 13571
舨 13572
航 13573
舫 13574
般 13575
舰 13576
舱 13577
舳 13578
舴 13579
舵 13580
舶 13581
舷 13582
舸 13583
船 13584
舺 13585
舻 13586
舾 13587
艄 13588
艅 13589
艇 13590
艋 13591
艎 13592
艏 13593
艘 13594
艚 13595
艮 13596
良 13597
艰 13598
色 13599
艳 13600
艹 13601
艺 13602
艽 13603
艾 13604
艿 13605
节 13606
芃 13607
芄 13608
芈 13609
芊 13610
芋 13611
芍 13612
芎 13613
芏 13614
芑 13615
芒 13616
芗 13617
芘 13618
芙 13619
芜 13620
芝 13621
芟 13622
芠 13623
芡 13624
芣 13625
芤 13626
芥 13627
芦 13628
芧 13629
芨 13630
芩 13631
芪 13632
芫 13633
芬 13634
芭 13635
芮 13636
芯 13637
芰 13638
花 13639
芳 13640
芴 13641
芵 13642
芶 13643
芷 13644
芸 13645
芹 13646
芼 13647
芽 13648
芾 13649
芿 13650
苁 13651
苄 13652
苇 13653
苈 13654
苊 13655
苋 13656
苌 13657
苍 13658
苎 13659
苏 13660
苑 13661
苒 13662
苓 13663
苔 13664
苕 13665
苗 13666
苘 13667
苛 13668
苜 13669
苝 13670
苞 13671
苟 13672
苡 13673
苢 13674
苣 13675
苤 13676
若 13677
苦 13678
苪 13679
苫 13680
苯 13681
英 13682
苴 13683
苶 13684
苷 13685
苹 13686
苻 13687
苾 13688
茁 13689
茂 13690
范 13691
茄 13692
茅 13693
茆 13694
茈 13695
茉 13696
茌 13697
茎 13698
茏 13699
茑 13700
茔 13701
茕 13702
茗 13703
茚 13704
茛 13705
茜 13706
茝 13707
茧 13708
茨 13709
茫 13710
茬 13711
茭 13712
茯 13713
茱 13714
茳 13715
茴 13716
茵 13717
茶 13718
茷 13719
茸 13720
茹 13721
茺 13722
茼 13723
荀 13724
荃 13725
荄 13726
荅 13727
荆 13728
荇 13729
草 13730
荏 13731
荐 13732
荑 13733
荒 13734
荔 13735
荘 13736
荚 13737
荛 13738
荜 13739
荞 13740
荟 13741
荠 13742
荡 13743
荢 13744
荣 13745
荤 13746
荥 13747
荦 13748
荧 13749
荨 13750
荩 13751
荪 13752
荫 13753
荭 13754
药 13755
荷 13756
荸 13757
荻 13758
荼 13759
荽 13760
莂 13761
莅 13762
莆 13763
莉 13764
莎 13765
莒 13766
莓 13767
莘 13768
莙 13769
莛 13770
莜 13771
莞 13772
莠 13773
莣 13774
莦 13775
莨 13776
莩 13777
莪 13778
莫 13779
莮 13780
莱 13781
莲 13782
莳 13783
莴 13784
莶 13785
获 13786
莹 13787
莺 13788
莼 13789
莽 13790
菀 13791
菁 13792
菅 13793
菇 13794
菈 13795
菉 13796
菊 13797
菌 13798
菏 13799
菓 13800
菔 13801
菖 13802
菘 13803
菜 13804
菝 13805
菟 13806
菠 13807
菡 13808
菩 13809
菪 13810
菭 13811
菰 13812
菱 13813
菲 13814
菴 13815
菶 13816
菸 13817
菽 13818
菿 13819
萁 13820
萃 13821
萄 13822
萆 13823
萋 13824
萌 13825
萍 13826
萎 13827
萏 13828
萑 13829
萘 13830
萜 13831
萝 13832
萢 13833
萣 13834
萤 13835
营 13836
萦 13837
萧 13838
萨 13839
萩 13840
萬 13841
萱 13842
萵 13843
萸 13844
萹 13845
萼 13846
落 13847
葆 13848
葐 13849
葑 13850
著 13851
葙 13852
葚 13853
葛 13854
葜 13855
葡 13856
葢 13857
董 13858
葩 13859
葫 13860
葬 13861
葭 13862
葱 13863
葳 13864
葵 13865
葶 13866
葺 13867
蒂 13868
蒋 13869
蒌 13870
蒑 13871
蒗 13872
蒙 13873
蒜 13874
蒞 13875
蒟 13876
蒡 13877
蒨 13878
蒯 13879
蒲 13880
蒴 13881
蒸 13882
蒹 13883
蒺 13884
蒻 13885
蒽 13886
蒿 13887
蓀 13888
蓁 13889
蓄 13890
蓉 13891
蓊 13892
蓋 13893
蓍 13894
蓐 13895
蓑 13896
蓓 13897
蓖 13898
蓝 13899
蓟 13900
蓠 13901
蓢 13902
蓣 13903
蓥 13904
蓦 13905
蓬 13906
蓻 13907
蓼 13908
蓿 13909
蔃 13910
蔊 13911
蔌 13912
蔏 13913
蔑 13914
蔓 13915
蔗 13916
蔚 13917
蔟 13918
蔡 13919
蔣 13920
蔫 13921
蔬 13922
蔴 13923
蔵 13924
蔷 13925
蔸 13926
蔺 13927
蔻 13928
蔼 13929
蔽 13930
蕃 13931
蕈 13932
蕉 13933
蕊 13934
蕖 13935
蕙 13936
蕞 13937
蕣 13938
蕤 13939
蕨 13940
蕫 13941
蕰 13942
蕲 13943
蕳 13944
蕴 13945
蕸 13946
蕹 13947
蕺 13948
蕻 13949
蕾 13950
薄 13951
薅 13952
薇 13953
薏 13954
薐 13955
薙 13956
薛 13957
薜 13958
薢 13959
薤 13960
薨 13961
薪 13962
薬 13963
薮 13964
薯 13965
薰 13966
薶 13967
薷 13968
薹 13969
藁 13970
藉 13971
藍 13972
藏 13973
藐 13974
藓 13975
藕 13976
藜 13977
藠 13978
藤 13979
藦 13980
藩 13981
藴 13982
藻 13983
藿 13984
蘅 13985
蘇 13986
蘋 13987
蘑 13988
蘖 13989
蘘 13990
蘩 13991
蘭 13992
蘸 13993
蘼 13994
虁 13995
虉 13996
虎 13997
虏 13998
虐 13999
虑 14000
虔 14001
虚 14002
虛 14003
虞 14004
虢 14005
虫 14006
虬 14007
虮 14008
虯 14009
虱 14010
虹 14011
虻 14012
虼 14013
虽 14014
虾 14015
虿 14016
蚀 14017
蚁 14018
蚂 14019
蚊 14020
蚋 14021
蚌 14022
蚍 14023
蚓 14024
蚕 14025
蚚 14026
蚜 14027
蚝 14028
蚡 14029
蚣 14030
蚤 14031
蚧 14032
蚨 14033
蚩 14034
蚪 14035
蚬 14036
蚯 14037
蚰 14038
蚱 14039
蚴 14040
蚵 14041
蚶 14042
蚺 14043
蛀 14044
蛄 14045
蛆 14046
蛇 14047
蛉 14048
蛊 14049
蛋 14050
蛎 14051
蛏 14052
蛐 14053
蛔 14054
蛙 14055
蛛 14056
蛞 14057
蛟 14058
蛤 14059
蛩 14060
蛭 14061
蛮 14062
蛰 14063
蛱 14064
蛲 14065
蛳 14066
蛴 14067
蛸 14068
蛹 14069
蛾 14070
蜀 14071
蜂 14072
蜃 14073
蜇 14074
蜈 14075
蜉 14076
蜊 14077
蜋 14078
蜍 14079
蜒 14080
蜓 14081
蜕 14082
蜗 14083
蜘 14084
蜚 14085
蜛 14086
蜜 14087
蜞 14088
蜡 14089
蜢 14090
蜣 14091
蜥 14092
蜩 14093
蜮 14094
蜱 14095
蜴 14096
蜷 14097
蜻 14098
蜾 14099
蜿 14100
蝂 14101
蝇 14102
蝈 14103
蝉 14104
蝌 14105
蝎 14106
蝓 14107
蝗 14108
蝙 14109
蝜 14110
蝠 14111
蝣 14112
蝤 14113
蝥 14114
蝮 14115
蝰 14116
蝲 14117
蝴 14118
蝶 14119
蝻 14120
蝼 14121
蝽 14122
蝾 14123
螂 14124
螃 14125
螅 14126
螈 14127
融 14128
螓 14129
螟 14130
螨 14131
螫 14132
螬 14133
螭 14134
螯 14135
螳 14136
螵 14137
螺 14138
螽 14139
蟀 14140
蟆 14141
蟊 14142
蟋 14143
蟏 14144
蟑 14145
蟒 14146
蟛 14147
蟞 14148
蟠 14149
蟥 14150
蟪 14151
蟮 14152
蟹 14153
蟾 14154
蠃 14155
蠊 14156
蠓 14157
蠕 14158
蠖 14159
蠙 14160
蠛 14161
蠡 14162
蠢 14163
蠲 14164
蠹 14165
蠼 14166
血 14167
衄 14168
衅 14169
行 14170
衍 14171
衎 14172
衏 14173
衔 14174
街 14175
衙 14176
衝 14177
衡 14178
衢 14179
衣 14180
衤 14181
补 14182
表 14183
衩 14184
衫 14185
衬 14186
衮 14187
衰 14188
衲 14189
衷 14190
衽 14191
衾 14192
衿 14193
袁 14194
袂 14195
袄 14196
袅 14197
袆 14198
袈 14199
袋 14200
袍 14201
袏 14202
袒 14203
袖 14204
袜 14205
袢 14206
袤 14207
袨 14208
被 14209
袭 14210
袯 14211
袱 14212
袷 14213
裁 14214
裂 14215
装 14216
裆 14217
裇 14218
裉 14219
裏 14220
裒 14221
裔 14222
裕 14223
裘 14224
裙 14225
裝 14226
裞 14227
裟 14228
裡 14229
裢 14230
裤 14231
裥 14232
裨 14233
裱 14234
裳 14235
裴 14236
裸 14237
裹 14238
裾 14239
褂 14240
褊 14241
褐 14242
褒 14243
褓 14244
褔 14245
褕 14246
褚 14247
褛 14248
褡 14249
褥 14250
褪 14251
褫 14252
褯 14253
褴 14254
褶 14255
襁 14256
襄 14257
襗 14258
襞 14259
襟 14260
襦 14261
襫 14262
襰 14263
襻 14264
西 14265
要 14266
覃 14267
覅 14268
覆 14269
覇 14270
見 14271
視 14272
親 14273
覺 14274
见 14275
观 14276
觃 14277
规 14278
觅 14279
视 14280
觇 14281
览 14282
觉 14283
觊 14284
觍 14285
觎 14286
觐 14287
觑 14288
角 14289
觚 14290
觞 14291
解 14292
觥 14293
触 14294
觧 14295
觫 14296
觳 14297
言 14298
訇 14299
計 14300
討 14301
記 14302
訚 14303
許 14304
訴 14305
訾 14306
詈 14307
話 14308
該 14309
詹 14310
誉 14311
誊 14312
誒 14313
誓 14314
誔 14315
語 14316
說 14317
説 14318
誰 14319
調 14320
論 14321
謇 14322
謝 14323
謦 14324
譚 14325
警 14326
譬 14327
譲 14328
變 14329
计 14330
订 14331
讣 14332
认 14333
讥 14334
讦 14335
讧 14336
讨 14337
让 14338
讪 14339
讫 14340
训 14341
议 14342
讯 14343
记 14344
讲 14345
讳 14346
讴 14347
讵 14348
讶 14349
讷 14350
许 14351
讹 14352
论 14353
讼 14354
讽 14355
设 14356
访 14357
诀 14358
证 14359
诂 14360
诃 14361
评 14362
诅 14363
识 14364
诈 14365
诉 14366
诊 14367
诋 14368
诌 14369
词 14370
诎 14371
诏 14372
译 14373
诒 14374
诓 14375
试 14376
诗 14377
诘 14378
诙 14379
诚 14380
诛 14381
诜 14382
话 14383
诞 14384
诟 14385
诠 14386
诡 14387
询 14388
诣 14389
诤 14390
该 14391
详 14392
诧 14393
诨 14394
诩 14395
诫 14396
诬 14397
语 14398
诮 14399
误 14400
诰 14401
诱 14402
诲 14403
诳 14404
说 14405
诵 14406
诶 14407
请 14408
诸 14409
诹 14410
诺 14411
读 14412
诼 14413
诽 14414
课 14415
诿 14416
谀 14417
谁 14418
调 14419
谄 14420
谅 14421
谆 14422
谇 14423
谈 14424
谊 14425
谋 14426
谌 14427
谍 14428
谎 14429
谏 14430
谐 14431
谑 14432
谒 14433
谓 14434
谔 14435
谕 14436
谖 14437
谗 14438
谘 14439
谙 14440
谚 14441
谛 14442
谜 14443
谝 14444
谟 14445
谠 14446
谡 14447
谢 14448
谣 14449
谤 14450
谥 14451
谦 14452
谧 14453
谨 14454
谩 14455
谪 14456
谬 14457
谭 14458
谮 14459
谯 14460
谰 14461
谱 14462
谲 14463
谳 14464
谴 14465
谵 14466
谶 14467
谷 14468
谿 14469
豁 14470
豆 14471
豇 14472
豉 14473
豊 14474
豌 14475
豕 14476
豗 14477
豚 14478
象 14479
豢 14480
豨 14481
豪 14482
豫 14483
豬 14484
豭 14485
豳 14486
豸 14487
豹 14488
豺 14489
豿 14490
貂 14491
貅 14492
貉 14493
貊 14494
貌 14495
貓 14496
貔 14497
貘 14498
負 14499
財 14500
貴 14501
買 14502
費 14503
貿 14504
賈 14505
賍 14506
賢 14507
賣 14508
賨 14509
賶 14510
贊 14511
贏 14512
贝 14513
贞 14514
负 14515
贡 14516
财 14517
责 14518
贤 14519
败 14520
账 14521
货 14522
质 14523
贩 14524
贪 14525
贫 14526
贬 14527
购 14528
贮 14529
贯 14530
贰 14531
贱 14532
贲 14533
贴 14534
贵 14535
贷 14536
贸 14537
费 14538
贺 14539
贻 14540
贼 14541
贽 14542
贾 14543
贿 14544
赀 14545
赁 14546
赂 14547
赃 14548
资 14549
赅 14550
赈 14551
赉 14552
赊 14553
赋 14554
赌 14555
赍 14556
赎 14557
赏 14558
赐 14559
赑 14560
赓 14561
赔 14562
赖 14563
赘 14564
赙 14565
赚 14566
赛 14567
赝 14568
赞 14569
赟 14570
赠 14571
赡 14572
赢 14573
赣 14574
赤 14575
赦 14576
赧 14577
赪 14578
赫 14579
赭 14580
赯 14581
走 14582
赱 14583
赳 14584
赴 14585
赵 14586
赶 14587
起 14588
趁 14589
趄 14590
超 14591
越 14592
趋 14593
趔 14594
趟 14595
趣 14596
趱 14597
足 14598
趴 14599
趵 14600
趸 14601
趺 14602
趼 14603
趾 14604
趿 14605
跃 14606
跄 14607
跆 14608
跋 14609
跌 14610
跍 14611
跎 14612
跏 14613
跐 14614
跑 14615
跖 14616
跗 14617
跘 14618
跚 14619
跛 14620
距 14621
跟 14622
跤 14623
跨 14624
跩 14625
跪 14626
跬 14627
路 14628
跰 14629
跳 14630
践 14631
跶 14632
跷 14633
跸 14634
跹 14635
跺 14636
跻 14637
踄 14638
踅 14639
踆 14640
踉 14641
踊 14642
踌 14643
踏 14644
踔 14645
踖 14646
踝 14647
踞 14648
踟 14649
踡 14650
踢 14651
踧 14652
踩 14653
踪 14654
踮 14655
踯 14656
踱 14657
踵 14658
踹 14659
踺 14660
踽 14661
蹁 14662
蹂 14663
蹄 14664
蹇 14665
蹈 14666
蹉 14667
蹊 14668
蹋 14669
蹍 14670
蹑 14671
蹒 14672
蹓 14673
蹙 14674
蹚 14675
蹦 14676
蹩 14677
蹬 14678
蹭 14679
蹰 14680
蹲 14681
蹴 14682
蹶 14683
蹷 14684
蹼 14685
蹽 14686
蹾 14687
蹿 14688
躁 14689
躅 14690
躇 14691
躏 14692
躔 14693
躦 14694
身 14695
躬 14696
躯 14697
躲 14698
躶 14699
躺 14700
車 14701
転 14702
較 14703
輩 14704
輮 14705
輸 14706
轉 14707
轘 14708
车 14709
轧 14710
轨 14711
轩 14712
轫 14713
转 14714
轭 14715
轮 14716
软 14717
轰 14718
轱 14719
轲 14720
轳 14721
轴 14722
轶 14723
轸 14724
轻 14725
轼 14726
载 14727
轾 14728
轿 14729
辂 14730
较 14731
辄 14732
辅 14733
辆 14734
辇 14735
辈 14736
辉 14737
辊 14738
辋 14739
辍 14740
辎 14741
辏 14742
辐 14743
辑 14744
输 14745
辔 14746
辕 14747
辖 14748
辗 14749
辘 14750
辙 14751
辚 14752
辛 14753
辜 14754
辞 14755
辟 14756
辣 14757
辨 14758
辩 14759
辫 14760
辰 14761
辱 14762
边 14763
辻 14764
辽 14765
达 14766
迁 14767
迂 14768
迄 14769
迅 14770
迆 14771
过 14772
迈 14773
迋 14774
迎 14775
运 14776
近 14777
迓 14778
返 14779
还 14780
这 14781
进 14782
远 14783
违 14784
连 14785
迟 14786
迢 14787
迤 14788
迥 14789
迦 14790
迩 14791
迪 14792
迫 14793
迭 14794
迮 14795
述 14796
迳 14797
迷 14798
迸 14799
迹 14800
追 14801
退 14802
送 14803
适 14804
逃 14805
逄 14806
逅 14807
逆 14808
逇 14809
选 14810
逊 14811
逋 14812
逍 14813
透 14814
逐 14815
逑 14816
递 14817
途 14818
逖 14819
逗 14820
這 14821
通 14822
逛 14823
逝 14824
逞 14825
速 14826
造 14827
逡 14828
逢 14829
逤 14830
逦 14831
逮 14832
逯 14833
逵 14834
逶 14835
逸 14836
逻 14837
逼 14838
逾 14839
遁 14840
遂 14841
遄 14842
遆 14843
遇 14844
遍 14845
過 14846
遏 14847
遐 14848
遑 14849
遒 14850
道 14851
遗 14852
遛 14853
遠 14854
遢 14855
遣 14856
遥 14857
遨 14858
遪 14859
遭 14860
遮 14861
遯 14862
遴 14863
遵 14864
遺 14865
遽 14866
避 14867
邀 14868
邂 14869
邃 14870
還 14871
邈 14872
邊 14873
邋 14874
邑 14875
邓 14876
邕 14877
邗 14878
邙 14879
邛 14880
邝 14881
邡 14882
邢 14883
那 14884
邦 14885
邨 14886
邪 14887
邬 14888
邮 14889
邯 14890
邰 14891
邱 14892
邳 14893
邴 14894
邵 14895
邶 14896
邸 14897
邹 14898
邺 14899
邻 14900
邾 14901
郁 14902
郃 14903
郄 14904
郅 14905
郇 14906
郊 14907
郎 14908
郏 14909
郐 14910
郑 14911
郓 14912
郗 14913
郚 14914
郛 14915
郜 14916
郝 14917
郞 14918
郡 14919
郢 14920
郤 14921
郦 14922
郧 14923
部 14924
郩 14925
郪 14926
郫 14927
郭 14928
郯 14929
郴 14930
郸 14931
都 14932
郾 14933
郿 14934
鄂 14935
鄄 14936
鄌 14937
鄙 14938
鄚 14939
鄞 14940
鄠 14941
鄢 14942
鄣 14943
鄪 14944
鄯 14945
鄱 14946
鄹 14947
酂 14948
酃 14949
酆 14950
酇 14951
酉 14952
酊 14953
酋 14954
酌 14955
配 14956
酐 14957
酒 14958
酔 14959
酗 14960
酚 14961
酝 14962
酞 14963
酢 14964
酣 14965
酤 14966
酥 14967
酩 14968
酪 14969
酬 14970
酮 14971
酯 14972
酰 14973
酱 14974
酲 14975
酴 14976
酵 14977
酶 14978
酷 14979
酸 14980
酹 14981
酽 14982
酾 14983
酿 14984
醅 14985
醇 14986
醉 14987
醋 14988
醌 14989
醍 14990
醐 14991
醑 14992
醒 14993
醚 14994
醛 14995
醣 14996
醪 14997
醭 14998
醮 14999
醯 15000
醴 15001
醺 15002
釆 15003
采 15004
釉 15005
释 15006
釋 15007
里 15008
重 15009
野 15010
量 15011
金 15012
釜 15013
釦 15014
釧 15015
鈖 15016
鈞 15017
鈡 15018
鈺 15019
鉄 15020
鉧 15021
鉴 15022
鉽 15023
銀 15024
銅 15025
銮 15026
銷 15027
鋆 15028
鋈 15029
鋐 15030
鋒 15031
錒 15032
錡 15033
錯 15034
錾 15035
鍀 15036
鍪 15037
鍹 15038
鎏 15039
鎔 15040
鎚 15041
鎛 15042
鎝 15043
鏊 15044
鏖 15045
鏗 15046
鐧 15047
鐱 15048
鑊 15049
鑫 15050
钆 15051
钇 15052
针 15053
钉 15054
钊 15055
钋 15056
钌 15057
钍 15058
钎 15059
钏 15060
钐 15061
钒 15062
钓 15063
钔 15064
钕 15065
钗 15066
钙 15067
钚 15068
钛 15069
钜 15070
钝 15071
钞 15072
钟 15073
钠 15074
钡 15075
钢 15076
钣 15077
钤 15078
钥 15079
钦 15080
钧 15081
钨 15082
钩 15083
钪 15084
钫 15085
钭 15086
钮 15087
钯 15088
钰 15089
钱 15090
钲 15091
钳 15092
钴 15093
钵 15094
钶 15095
钷 15096
钸 15097
钹 15098
钺 15099
钻 15100
钼 15101
钽 15102
钾 15103
钿 15104
铀 15105
铁 15106
铂 15107
铃 15108
铄 15109
铅 15110
铆 15111
铈 15112
铉 15113
铊 15114
铋 15115
铌 15116
铍 15117
铎 15118
铐 15119
铑 15120
铒 15121
铕 15122
铖 15123
铗 15124
铙 15125
铛 15126
铜 15127
铝 15128
铞 15129
铟 15130
铠 15131
铡 15132
铢 15133
铣 15134
铤 15135
铥 15136
铧 15137
铨 15138
铩 15139
铫 15140
铬 15141
铭 15142
铮 15143
铯 15144
铰 15145
铱 15146
铲 15147
铳 15148
铴 15149
铵 15150
银 15151
铷 15152
铸 15153
铺 15154
铼 15155
链 15156
铿 15157
销 15158
锁 15159
锂 15160
锃 15161
锄 15162
锅 15163
锆 15164
锇 15165
锈 15166
锉 15167
锊 15168
锋 15169
锌 15170
锍 15171
锏 15172
锐 15173
锑 15174
锒 15175
锓 15176
锔 15177
锕 15178
锖 15179
锗 15180
锘 15181
错 15182
锚 15183
锛 15184
锜 15185
锝 15186
锟 15187
锡 15188
锢 15189
锣 15190
锤 15191
锥 15192
锦 15193
锨 15194
锩 15195
锫 15196
锬 15197
锭 15198
键 15199
锯 15200
锰 15201
锱 15202
锲 15203
锴 15204
锵 15205
锶 15206
锷 15207
锸 15208
锹 15209
锺 15210
锻 15211
锼 15212
镀 15213
镁 15214
镂 15215
镃 15216
镄 15217
镅 15218
镆 15219
镇 15220
镉 15221
镊 15222
镋 15223
镌 15224
镍 15225
镏 15226
镐 15227
镑 15228
镒 15229
镓 15230
镔 15231
镕 15232
镖 15233
镗 15234
镘 15235
镙 15236
镚 15237
镛 15238
镜 15239
镝 15240
镞 15241
镟 15242
镠 15243
镡 15244
镢 15245
镣 15246
镥 15247
镦 15248
镧 15249
镨 15250
镩 15251
镪 15252
镫 15253
镬 15254
镭 15255
镯 15256
镰 15257
镱 15258
镲 15259
镳 15260
镴 15261
镶 15262
長 15263
镹 15264
长 15265
閉 15266
開 15267
閑 15268
間 15269
门 15270
闩 15271
闪 15272
闫 15273
闭 15274
问 15275
闯 15276
闰 15277
闱 15278
闲 15279
闳 15280
间 15281
闵 15282
闶 15283
闷 15284
闸 15285
闹 15286
闺 15287
闻 15288
闼 15289
闽 15290
闾 15291
闿 15292
阀 15293
阁 15294
阂 15295
阄 15296
阅 15297
阆 15298
阇 15299
阈 15300
阉 15301
阊 15302
阋 15303
阌 15304
阍 15305
阎 15306
阏 15307
阐 15308
阑 15309
阒 15310
阔 15311
阕 15312
阖 15313
阗 15314
阙 15315
阚 15316
阜 15317
阝 15318
队 15319
阡 15320
阪 15321
阬 15322
阮 15323
阱 15324
防 15325
阳 15326
阴 15327
阵 15328
阶 15329
阻 15330
阼 15331
阿 15332
陀 15333
陂 15334
附 15335
际 15336
陆 15337
陇 15338
陈 15339
陉 15340
陋 15341
陌 15342
降 15343
陏 15344
限 15345
陔 15346
陕 15347
陖 15348
陛 15349
陟 15350
陡 15351
院 15352
除 15353
陧 15354
陨 15355
险 15356
陪 15357
陬 15358
陲 15359
陳 15360
陴 15361
陵 15362
陶 15363
陷 15364
陼 15365
陽 15366
陾 15367
隅 15368
隆 15369
隈 15370
隋 15371
隍 15372
随 15373
隐 15374
隔 15375
隗 15376
隘 15377
隙 15378
障 15379
隧 15380
隰 15381
隳 15382
隶 15383
隹 15384
隼 15385
隽 15386
难 15387
雀 15388
雁 15389
雄 15390
雅 15391
集 15392
雇 15393
雉 15394
雌 15395
雍 15396
雎 15397
雏 15398
雑 15399
雒 15400
雕 15401
雠 15402
離 15403
雨 15404
雩 15405
雪 15406
雫 15407
雯 15408
雱 15409
雳 15410
零 15411
雷 15412
雹 15413
雾 15414
需 15415
霁 15416
霄 15417
霆 15418
震 15419
霈 15420
霉 15421
霍 15422
霎 15423
霏 15424
霑 15425
霓 15426
霖 15427
霜 15428
霞 15429
霧 15430
霪 15431
霭 15432
霰 15433
露 15434
霸 15435
霹 15436
霾 15437
靑 15438
青 15439
靓 15440
靖 15441
静 15442
靛 15443
靜 15444
非 15445
靠 15446
靡 15447
面 15448
靥 15449
靧 15450
革 15451
靳 15452
靴 15453
靶 15454
靼 15455
鞅 15456
鞋 15457
鞍 15458
鞎 15459
鞑 15460
鞒 15461
鞘 15462
鞠 15463
鞣 15464
鞥 15465
鞧 15466
鞭 15467
鞯 15468
鞲 15469
鞴 15470
鞿 15471
韡 15472
韦 15473
韧 15474
韩 15475
韪 15476
韫 15477
韬 15478
韭 15479
音 15480
韵 15481
韶 15482
頂 15483
項 15484
順 15485
頔 15486
領 15487
頫 15488
頲 15489
页 15490
顶 15491
顷 15492
顸 15493
项 15494
顺 15495
须 15496
顼 15497
顽 15498
顾 15499
顿 15500
颀 15501
颁 15502
颂 15503
预 15504
颅 15505
领 15506
颇 15507
颈 15508
颉 15509
颊 15510
颌 15511
颍 15512
颏 15513
颐 15514
频 15515
颓 15516
颔 15517
颖 15518
颗 15519
题 15520
颙 15521
颚 15522
颛 15523
颜 15524
额 15525
颞 15526
颟 15527
颠 15528
颡 15529
颢 15530
颤 15531
颦 15532
颧 15533
風 15534
风 15535
飏 15536
飐 15537
飑 15538
飒 15539
飓 15540
飔 15541
飕 15542
飘 15543
飙 15544
飚 15545
飞 15546
食 15547
飧 15548
飨 15549
飯 15550
餍 15551
餐 15552
館 15553
餮 15554
饕 15555
饣 15556
饥 15557
饧 15558
饨 15559
饪 15560
饫 15561
饬 15562
饭 15563
饮 15564
饯 15565
饰 15566
饱 15567
饲 15568
饴 15569
饵 15570
饶 15571
饷 15572
饸 15573
饹 15574
饺 15575
饼 15576
饽 15577
饿 15578
馀 15579
馁 15580
馃 15581
馄 15582
馅 15583
馆 15584
馇 15585
馈 15586
馊 15587
馋 15588
馍 15589
馏 15590
馐 15591
馑 15592
馒 15593
馓 15594
馔 15595
馕 15596
首 15597
馗 15598
香 15599
馥 15600
馨 15601
馼 15602
駄 15603
駨 15604
騋 15605
騑 15606
马 15607
驭 15608
驮 15609
驯 15610
驰 15611
驱 15612
驳 15613
驴 15614
驵 15615
驶 15616
驷 15617
驸 15618
驹 15619
驺 15620
驻 15621
驼 15622
驽 15623
驾 15624
驿 15625
骁 15626
骂 15627
骄 15628
骅 15629
骆 15630
骇 15631
骈 15632
骊 15633
骋 15634
验 15635
骏 15636
骐 15637
骑 15638
骓 15639
骖 15640
骗 15641
骚 15642
骛 15643
骜 15644
骝 15645
骞 15646
骟 15647
骠 15648
骡 15649
骢 15650
骤 15651
骥 15652
骧 15653
骨 15654
骰 15655
骶 15656
骷 15657
骸 15658
骺 15659
骼 15660
髀 15661
髁 15662
髂 15663
髅 15664
髈 15665
髋 15666
髌 15667
髎 15668
髑 15669
髓 15670
高 15671
髙 15672
髟 15673
髡 15674
髦 15675
髫 15676
髭 15677
髯 15678
髹 15679
髻 15680
鬂 15681
鬃 15682
鬄 15683
鬈 15684
鬏 15685
鬓 15686
鬙 15687
鬟 15688
鬣 15689
鬲 15690
鬻 15691
鬼 15692
鬽 15693
魁 15694
魂 15695
魃 15696
魄 15697
魅 15698
魆 15699
魇 15700
魈 15701
魉 15702
魍 15703
魏 15704
魑 15705
魔 15706
魟 15707
魨 15708
鮀 15709
鮁 15710
鮟 15711
鮰 15712
鮸 15713
鰩 15714
鱀 15715
鱇 15716
鱼 15717
鱿 15718
鲀 15719
鲁 15720
鲂 15721
鲃 15722
鲅 15723
鲆 15724
鲇 15725
鲈 15726
鲊 15727
鲋 15728
鲍 15729
鲎 15730
鲐 15731
鲑 15732
鲔 15733
鲖 15734
鲗 15735
鲘 15736
鲛 15737
鲜 15738
鲞 15739
鲟 15740
鲠 15741
鲡 15742
鲢 15743
鲣 15744
鲤 15745
鲥 15746
鲧 15747
鲨 15748
鲩 15749
鲫 15750
鲭 15751
鲮 15752
鲰 15753
鲱 15754
鲲 15755
鲳 15756
鲵 15757
鲶 15758
鲷 15759
鲸 15760
鲺 15761
鲼 15762
鲽 15763
鳃 15764
鳄 15765
鳅 15766
鳊 15767
鳌 15768
鳍 15769
鳎 15770
鳏 15771
鳐 15772
鳓 15773
鳔 15774
鳕 15775
鳖 15776
鳗 15777
鳘 15778
鳙 15779
鳜 15780
鳝 15781
鳞 15782
鳟 15783
鳢 15784
鳣 15785
鳯 15786
鳳 15787
鴂 15788
鴞 15789
鴻 15790
鵖 15791
鵟 15792
鵩 15793
鵰 15794
鶗 15795
鷌 15796
鸟 15797
鸠 15798
鸡 15799
鸢 15800
鸣 15801
鸥 15802
鸦 15803
鸨 15804
鸩 15805
鸪 15806
鸫 15807
鸬 15808
鸭 15809
鸮 15810
鸯 15811
鸰 15812
鸲 15813
鸳 15814
鸵 15815
鸶 15816
鸷 15817
鸸 15818
鸹 15819
鸻 15820
鸽 15821
鸾 15822
鸿 15823
鹀 15824
鹁 15825
鹂 15826
鹃 15827
鹄 15828
鹅 15829
鹇 15830
鹈 15831
鹉 15832
鹊 15833
鹋 15834
鹌 15835
鹍 15836
鹎 15837
鹏 15838
鹐 15839
鹑 15840
鹕 15841
鹗 15842
鹘 15843
鹚 15844
鹛 15845
鹜 15846
鹞 15847
鹟 15848
鹣 15849
鹤 15850
鹦 15851
鹧 15852
鹩 15853
鹪 15854
鹫 15855
鹬 15856
鹭 15857
鹮 15858
鹰 15859
鹱 15860
鹳 15861
鹾 15862
鹿 15863
麂 15864
麋 15865
麑 15866
麒 15867
麓 15868
麝 15869
麟 15870
麤 15871
麦 15872
麴 15873
麸 15874
麻 15875
麼 15876
麽 15877
麾 15878
麿 15879
黃 15880
黄 15881
黉 15882
黍 15883
黎 15884
黏 15885
黑 15886
黒 15887
黔 15888
默 15889
黙 15890
黛 15891
黜 15892
黝 15893
點 15894
黟 15895
黠 15896
黢 15897
黥 15898
黧 15899
黩 15900
黯 15901
黾 15902
鼋 15903
鼎 15904
鼐 15905
鼓 15906
鼙 15907
鼠 15908
鼢 15909
鼬 15910
鼯 15911
鼹 15912
鼻 15913
鼾 15914
齁 15915
齉 15916
齐 15917
齿 15918
龃 15919
龄 15920
龅 15921
龆 15922
龇 15923
龈 15924
龉 15925
龊 15926
龋 15927
龌 15928
龍 15929
龑 15930
龙 15931
龚 15932
龛 15933
龞 15934
龟 15935
龢 15936
<sos/eos> 15937
